/* Copyright 2019 The TensorFlow Authors. All Rights Reserved.

Licensed under the Apache License, Version 2.0 (the "License");
you may not use this file except in compliance with the License.
You may obtain a copy of the License at

    http://www.apache.org/licenses/LICENSE-2.0

Unless required by applicable law or agreed to in writing, software
distributed under the License is distributed on an "AS IS" BASIS,
WITHOUT WARRANTIES OR CONDITIONS OF ANY KIND, either express or implied.
See the License for the specific language governing permissions and
limitations under the License.
==============================================================================*/

// Automatically created from a TensorFlow Lite flatbuffer using the command:
// xxd -i classify_heartbeats_cnn_quantized.tflite > classify_heartbeats_cnn_quantized.cc
// See the README for a full description of the creation process.

#include "tensorflow/lite/micro/examples/classify_heartbeats/classify_heartbeats_cnn_quantized.h"

// We need to keep the data array aligned on some architectures.
#ifdef __has_attribute
#define HAVE_ATTRIBUTE(x) __has_attribute(x)
#else
#define HAVE_ATTRIBUTE(x) 0
#endif
#if HAVE_ATTRIBUTE(aligned) || (defined(__GNUC__) && !defined(__clang__))
#define DATA_ALIGN_ATTRIBUTE __attribute__((aligned(4)))
#else
#define DATA_ALIGN_ATTRIBUTE
#endif

const unsigned char classify_heartbeats_cnn_quantized_tflite[] DATA_ALIGN_ATTRIBUTE = {
  0x1c, 0x00, 0x00, 0x00, 0x54, 0x46, 0x4c, 0x33, 0x00, 0x00, 0x12, 0x00,
  0x1c, 0x00, 0x04, 0x00, 0x08, 0x00, 0x0c, 0x00, 0x10, 0x00, 0x14, 0x00,
  0x00, 0x00, 0x18, 0x00, 0x12, 0x00, 0x00, 0x00, 0x03, 0x00, 0x00, 0x00,
  0x28, 0x6a, 0x00, 0x00, 0xf0, 0x50, 0x00, 0x00, 0xd8, 0x50, 0x00, 0x00,
  0x3c, 0x00, 0x00, 0x00, 0x04, 0x00, 0x00, 0x00, 0x01, 0x00, 0x00, 0x00,
  0x0c, 0x00, 0x00, 0x00, 0x08, 0x00, 0x0c, 0x00, 0x04, 0x00, 0x08, 0x00,
  0x08, 0x00, 0x00, 0x00, 0x08, 0x00, 0x00, 0x00, 0x24, 0x00, 0x00, 0x00,
  0x13, 0x00, 0x00, 0x00, 0x6d, 0x69, 0x6e, 0x5f, 0x72, 0x75, 0x6e, 0x74,
  0x69, 0x6d, 0x65, 0x5f, 0x76, 0x65, 0x72, 0x73, 0x69, 0x6f, 0x6e, 0x00,
  0x25, 0x00, 0x00, 0x00, 0x90, 0x50, 0x00, 0x00, 0x70, 0x50, 0x00, 0x00,
  0x50, 0x50, 0x00, 0x00, 0xc8, 0x4f, 0x00, 0x00, 0xa4, 0x4f, 0x00, 0x00,
  0x44, 0x4f, 0x00, 0x00, 0xdc, 0x4c, 0x00, 0x00, 0xa4, 0x4c, 0x00, 0x00,
  0x44, 0x4c, 0x00, 0x00, 0x3c, 0x4c, 0x00, 0x00, 0xdc, 0x05, 0x00, 0x00,
  0xbc, 0x05, 0x00, 0x00, 0x98, 0x05, 0x00, 0x00, 0x90, 0x05, 0x00, 0x00,
  0x70, 0x05, 0x00, 0x00, 0x68, 0x05, 0x00, 0x00, 0x60, 0x05, 0x00, 0x00,
  0x58, 0x05, 0x00, 0x00, 0x50, 0x05, 0x00, 0x00, 0x48, 0x05, 0x00, 0x00,
  0x40, 0x05, 0x00, 0x00, 0x20, 0x05, 0x00, 0x00, 0x48, 0x04, 0x00, 0x00,
  0x28, 0x04, 0x00, 0x00, 0x20, 0x04, 0x00, 0x00, 0x18, 0x04, 0x00, 0x00,
  0x10, 0x04, 0x00, 0x00, 0x08, 0x04, 0x00, 0x00, 0x00, 0x04, 0x00, 0x00,
  0xd0, 0x00, 0x00, 0x00, 0xc8, 0x00, 0x00, 0x00, 0xc0, 0x00, 0x00, 0x00,
  0xb8, 0x00, 0x00, 0x00, 0x98, 0x00, 0x00, 0x00, 0x24, 0x00, 0x00, 0x00,
  0x1c, 0x00, 0x00, 0x00, 0x04, 0x00, 0x00, 0x00, 0x36, 0xab, 0xff, 0xff,
  0x04, 0x00, 0x00, 0x00, 0x05, 0x00, 0x00, 0x00, 0x31, 0x2e, 0x35, 0x2e,
  0x30, 0x00, 0x00, 0x00, 0x90, 0x98, 0xff, 0xff, 0x4e, 0xab, 0xff, 0xff,
  0x04, 0x00, 0x00, 0x00, 0x64, 0x00, 0x00, 0x00, 0xe4, 0x27, 0x04, 0x44,
  0xc9, 0xe0, 0x05, 0x30, 0xfc, 0xd7, 0x3f, 0xa2, 0xb6, 0x37, 0xde, 0xca,
  0xec, 0xfb, 0x29, 0xd3, 0xf5, 0xf1, 0xef, 0xf5, 0xda, 0x4f, 0x38, 0xce,
  0xf5, 0x31, 0xcc, 0xf2, 0xdc, 0x20, 0x09, 0x05, 0x3c, 0xd3, 0x1e, 0xbc,
  0xe0, 0xc8, 0xc0, 0xda, 0x37, 0x1c, 0xc6, 0x24, 0xc9, 0xed, 0x1b, 0xf6,
  0x24, 0x10, 0xbe, 0x24, 0xd0, 0xfc, 0xbc, 0xc8, 0x31, 0x00, 0x06, 0x14,
  0xe6, 0xed, 0xc5, 0xe8, 0xd4, 0xbd, 0xce, 0xc8, 0x0c, 0xe9, 0xb7, 0xde,
  0xcb, 0xda, 0xce, 0x85, 0xbc, 0x1d, 0x2b, 0xc8, 0xbf, 0xfd, 0xc5, 0xa1,
  0xda, 0x81, 0xfc, 0x1f, 0xff, 0xe4, 0x00, 0xb8, 0x37, 0xf2, 0x00, 0x1d,
  0xbe, 0xab, 0xff, 0xff, 0x04, 0x00, 0x00, 0x00, 0x10, 0x00, 0x00, 0x00,
  0x01, 0x00, 0x00, 0x00, 0x01, 0x00, 0x00, 0x00, 0x3f, 0x00, 0x00, 0x00,
  0x0a, 0x00, 0x00, 0x00, 0x20, 0x99, 0xff, 0xff, 0x24, 0x99, 0xff, 0xff,
  0x28, 0x99, 0xff, 0xff, 0xe6, 0xab, 0xff, 0xff, 0x04, 0x00, 0x00, 0x00,
  0x20, 0x03, 0x00, 0x00, 0xac, 0x17, 0xd9, 0xf5, 0xc8, 0x35, 0x32, 0x1a,
  0xa8, 0xe9, 0xbc, 0x1a, 0xf0, 0xf6, 0x00, 0x2b, 0x0f, 0x3b, 0x81, 0xbe,
  0x97, 0x2b, 0xf0, 0x0a, 0xd5, 0x42, 0x01, 0x22, 0x94, 0xe7, 0xf7, 0x42,
  0xc1, 0xf7, 0xe9, 0x1b, 0x19, 0x3d, 0x92, 0x2a, 0x7a, 0x31, 0x1d, 0xe3,
  0xa2, 0xfb, 0x7b, 0x27, 0xe7, 0x1a, 0x73, 0x0a, 0x1b, 0xca, 0xdf, 0xe6,
  0x15, 0x0b, 0xf9, 0xf2, 0x37, 0xa9, 0xc2, 0xf0, 0xfc, 0xce, 0x81, 0x09,
  0x5b, 0xff, 0xc8, 0xaf, 0xf7, 0xc8, 0x51, 0x00, 0x3d, 0x1d, 0x45, 0x22,
  0x3e, 0xf1, 0x03, 0xd8, 0xbc, 0xd8, 0xfe, 0xe6, 0xbd, 0x02, 0x4f, 0xd2,
  0x4b, 0x0b, 0xfe, 0x13, 0xe1, 0xf0, 0x81, 0x02, 0xfe, 0x08, 0xe0, 0xf4,
  0x2b, 0x32, 0xf3, 0xe7, 0xda, 0xb0, 0xf4, 0xe9, 0xf5, 0x3f, 0x39, 0x08,
  0xc3, 0xe0, 0x4a, 0x00, 0x87, 0x9b, 0xc6, 0x99, 0x09, 0x16, 0xeb, 0xa1,
  0x04, 0x2f, 0x4e, 0x35, 0x30, 0xa0, 0xd0, 0xfc, 0xc0, 0xc6, 0xe9, 0xf7,
  0x61, 0xd0, 0x46, 0x55, 0x2c, 0x38, 0xfd, 0xa1, 0xf9, 0xcc, 0xd8, 0xb6,
  0x81, 0xd6, 0xee, 0xe8, 0x9f, 0xff, 0xe3, 0xe2, 0xc5, 0x29, 0xa6, 0x53,
  0x3a, 0x00, 0xb2, 0xd7, 0x28, 0xfc, 0x81, 0x14, 0xf2, 0xf5, 0x41, 0x17,
  0x02, 0xf8, 0x33, 0x0d, 0xa0, 0xe5, 0x31, 0xf5, 0x2e, 0xf7, 0x1d, 0x0c,
  0x31, 0xf0, 0xdd, 0xca, 0x37, 0xc2, 0xc5, 0xbe, 0x16, 0x13, 0x42, 0xc9,
  0x28, 0x3f, 0x25, 0x29, 0x17, 0x27, 0x44, 0x09, 0x25, 0xeb, 0x2d, 0x2e,
  0xe8, 0x14, 0x13, 0x1a, 0xec, 0x0f, 0xe4, 0x56, 0x3f, 0xbf, 0xec, 0xf2,
  0x1f, 0xba, 0xc2, 0x21, 0x03, 0xea, 0x38, 0x81, 0x9a, 0x06, 0x1c, 0x96,
  0xc6, 0x02, 0xf4, 0x9b, 0x20, 0xed, 0xf5, 0xc3, 0xa9, 0xdc, 0x16, 0x1d,
  0xf1, 0xe2, 0x7f, 0xe4, 0x69, 0x0b, 0xf9, 0xf3, 0x01, 0x23, 0x01, 0x35,
  0x4b, 0x19, 0x1f, 0x15, 0x07, 0xf5, 0x09, 0x1d, 0xe7, 0x12, 0x03, 0xee,
  0xde, 0x0c, 0x04, 0xdc, 0x10, 0x29, 0xea, 0x09, 0x1c, 0x47, 0xe9, 0xdd,
  0x01, 0xe5, 0xaf, 0x0b, 0x09, 0x47, 0x5b, 0x81, 0xf3, 0xa8, 0xca, 0xc0,
  0x10, 0xf3, 0xc9, 0x11, 0x19, 0xd9, 0x32, 0xeb, 0x20, 0xce, 0x32, 0xe4,
  0xb6, 0x28, 0x1e, 0xc6, 0x02, 0x48, 0x22, 0x3d, 0x27, 0x3e, 0x17, 0x0c,
  0xb3, 0x68, 0xe9, 0x36, 0x0e, 0x1d, 0x52, 0x11, 0xb2, 0xc2, 0xa4, 0x28,
  0xc5, 0xfb, 0x17, 0x04, 0x4a, 0xd2, 0x0b, 0x0a, 0x0a, 0xbc, 0xd6, 0x28,
  0xe6, 0xae, 0xee, 0x2e, 0x88, 0x5c, 0x4f, 0xd0, 0xdd, 0x27, 0x1b, 0x20,
  0x81, 0x25, 0x44, 0xc9, 0x06, 0x00, 0x40, 0x0c, 0x0a, 0x19, 0xe9, 0xec,
  0xf0, 0xee, 0x2e, 0x49, 0x15, 0x33, 0x23, 0xf3, 0x1b, 0xe3, 0xd1, 0x9b,
  0xfd, 0x41, 0xf9, 0x02, 0xde, 0x10, 0xe3, 0xc8, 0x8c, 0xb9, 0x01, 0x0d,
  0xc9, 0x07, 0xde, 0x9d, 0xa7, 0xcc, 0x81, 0xe8, 0x22, 0x1d, 0xe2, 0xde,
  0x1c, 0x17, 0xf4, 0xec, 0x03, 0xdd, 0xea, 0x12, 0x09, 0x21, 0xc2, 0xdb,
  0xd3, 0xdb, 0xff, 0xe5, 0x81, 0xe2, 0x04, 0xd7, 0x35, 0xfa, 0x2b, 0xe6,
  0x21, 0xef, 0xd8, 0x09, 0xe6, 0x1d, 0x15, 0x1b, 0x0f, 0x25, 0xe7, 0x2c,
  0x81, 0xf6, 0xfa, 0x19, 0x2a, 0xd9, 0x02, 0x19, 0x30, 0xf2, 0xab, 0xd8,
  0xf4, 0x01, 0x15, 0x05, 0xe6, 0x0c, 0xed, 0xdb, 0xd5, 0xf3, 0x19, 0xed,
  0x30, 0x04, 0xfe, 0x0f, 0x11, 0x05, 0x08, 0x2a, 0x46, 0xc4, 0x27, 0x00,
  0x58, 0x0f, 0x17, 0xf0, 0x0b, 0xf1, 0x0f, 0x24, 0x15, 0x0d, 0x1d, 0x24,
  0xfc, 0xff, 0xce, 0xe8, 0xf6, 0x19, 0x0e, 0x00, 0xbb, 0x0e, 0x16, 0xe4,
  0xc6, 0x24, 0xfa, 0x24, 0x19, 0x03, 0xfd, 0x20, 0x15, 0x14, 0x81, 0xf1,
  0xe4, 0xe6, 0xfc, 0xeb, 0xfe, 0x1d, 0xfd, 0x03, 0xbc, 0x3a, 0x2c, 0x26,
  0x05, 0xee, 0x22, 0xfc, 0xed, 0x2b, 0xf1, 0x36, 0xf5, 0x01, 0xd3, 0x16,
  0x0f, 0xce, 0x28, 0xfd, 0xfc, 0xe8, 0x01, 0xc6, 0x10, 0x0d, 0x25, 0xce,
  0x81, 0xad, 0x34, 0x06, 0xe0, 0xc8, 0xbb, 0xae, 0x06, 0x29, 0xd0, 0xd9,
  0x39, 0xe5, 0x59, 0xee, 0xf3, 0xa9, 0xfd, 0x04, 0xdb, 0xa0, 0xd8, 0xf6,
  0x1c, 0x05, 0x4d, 0x20, 0x24, 0xd6, 0x64, 0x13, 0xa9, 0x3a, 0xe0, 0xf0,
  0xa1, 0xf1, 0x73, 0xe2, 0xa0, 0xed, 0x06, 0xe0, 0x1b, 0xca, 0x81, 0xcc,
  0x33, 0xdd, 0x21, 0x31, 0xb0, 0xc0, 0xb7, 0x1b, 0x26, 0xde, 0xae, 0xd7,
  0x27, 0xe4, 0x81, 0xc3, 0xcb, 0x10, 0xf4, 0xf5, 0xe4, 0xf5, 0x36, 0x1a,
  0x0a, 0xdb, 0x20, 0xd6, 0xe2, 0x0e, 0x09, 0x26, 0x2f, 0x0a, 0x13, 0x39,
  0x2b, 0xca, 0x02, 0x31, 0x6c, 0xe7, 0x4c, 0x1f, 0x4f, 0xa4, 0x39, 0xd5,
  0x2b, 0xbb, 0x14, 0x06, 0x13, 0x6b, 0x25, 0xc5, 0x3c, 0x24, 0x2b, 0x14,
  0xb7, 0xdf, 0xbe, 0x23, 0x04, 0xd8, 0xe2, 0xf2, 0x0f, 0xfa, 0xed, 0x0c,
  0xb8, 0x07, 0xfb, 0xde, 0xc7, 0x4a, 0x12, 0x0a, 0xd7, 0xec, 0x81, 0xb7,
  0xc2, 0xfe, 0x18, 0xdf, 0xb5, 0x2c, 0x05, 0xf7, 0xbb, 0xa6, 0xa0, 0x46,
  0xe4, 0x3b, 0x2d, 0x1c, 0x1c, 0x09, 0x36, 0xce, 0x81, 0x2f, 0xe7, 0x1d,
  0x25, 0xc9, 0xf3, 0xce, 0x0e, 0x27, 0x86, 0xf1, 0xfc, 0xd4, 0x4b, 0x2b,
  0xec, 0x22, 0x1c, 0x33, 0xb4, 0x22, 0xd7, 0xb8, 0x45, 0x3b, 0xeb, 0xfc,
  0x07, 0x07, 0xf1, 0xe7, 0x03, 0xe0, 0xa0, 0xd5, 0x0e, 0x21, 0x9d, 0x37,
  0x7f, 0x10, 0x3f, 0x13, 0x1d, 0xd3, 0x16, 0x21, 0x08, 0xf4, 0x1a, 0x11,
  0xcd, 0xfd, 0x1b, 0x54, 0xaa, 0x0b, 0x69, 0x2e, 0x1f, 0xa5, 0xe6, 0x08,
  0xeb, 0xbf, 0xdf, 0xfc, 0x13, 0xad, 0xfc, 0xce, 0xeb, 0xed, 0xe4, 0x07,
  0x0e, 0x04, 0x49, 0xd7, 0x38, 0x92, 0xfe, 0xa9, 0x10, 0xc9, 0xeb, 0xf5,
  0x0c, 0x31, 0x7f, 0xf1, 0x67, 0xf8, 0xf2, 0xdb, 0xe8, 0xf8, 0x09, 0x44,
  0x58, 0x9c, 0xff, 0xff, 0x5c, 0x9c, 0xff, 0xff, 0x60, 0x9c, 0xff, 0xff,
  0x64, 0x9c, 0xff, 0xff, 0x68, 0x9c, 0xff, 0xff, 0x26, 0xaf, 0xff, 0xff,
  0x04, 0x00, 0x00, 0x00, 0x0f, 0x00, 0x00, 0x00, 0x7f, 0x7e, 0xba, 0x56,
  0x7f, 0x57, 0x7f, 0x81, 0x15, 0xf1, 0x25, 0xbc, 0xfa, 0x81, 0x3b, 0x00,
  0x42, 0xaf, 0xff, 0xff, 0x04, 0x00, 0x00, 0x00, 0xc8, 0x00, 0x00, 0x00,
  0x93, 0x84, 0x7f, 0xef, 0x01, 0xbe, 0xf1, 0xc7, 0xeb, 0xfb, 0x04, 0x1a,
  0xbd, 0xea, 0x45, 0x39, 0x79, 0x99, 0x45, 0xf2, 0x61, 0x52, 0x7d, 0x2e,
  0x3a, 0x13, 0x0e, 0x7f, 0xe7, 0x11, 0x1f, 0x00, 0x60, 0xda, 0x5d, 0x0b,
  0xc1, 0xd8, 0x86, 0xe2, 0x81, 0x97, 0x01, 0x50, 0x8f, 0x10, 0x15, 0x27,
  0xc6, 0xea, 0xe4, 0x06, 0xea, 0x03, 0x22, 0x08, 0x41, 0x2c, 0xdc, 0x44,
  0x20, 0x41, 0xa3, 0xe9, 0x07, 0xf5, 0x12, 0xa6, 0xaa, 0xda, 0x1b, 0x4e,
  0x81, 0xbc, 0x2e, 0xb4, 0x20, 0x88, 0xc5, 0x2d, 0xed, 0x28, 0x81, 0x26,
  0x14, 0xc8, 0x26, 0x90, 0x14, 0x08, 0xfa, 0x09, 0x04, 0x3b, 0xed, 0xe3,
  0x29, 0x10, 0x3e, 0xf3, 0x5c, 0x02, 0xf6, 0xce, 0xf0, 0x40, 0x40, 0x32,
  0x41, 0x19, 0xdf, 0xc2, 0x7f, 0xf7, 0x2f, 0x15, 0xb5, 0x1e, 0x97, 0x4b,
  0x9d, 0xdb, 0x45, 0x7f, 0x97, 0xf2, 0xbf, 0x54, 0x29, 0x9f, 0x31, 0xf9,
  0x4b, 0xd4, 0xcb, 0x15, 0xec, 0x07, 0xcd, 0xe2, 0x81, 0x34, 0x85, 0x8a,
  0x92, 0x81, 0x20, 0x11, 0xbe, 0x10, 0xc7, 0x11, 0x31, 0xd3, 0x6b, 0xa9,
  0x0c, 0xeb, 0x9d, 0xa0, 0xfd, 0x3a, 0xdc, 0x08, 0xdd, 0x4c, 0x01, 0xc2,
  0x7c, 0x03, 0x38, 0xfe, 0xc0, 0x7f, 0xc9, 0x8e, 0xfe, 0x48, 0x76, 0x9b,
  0x11, 0xda, 0x2b, 0x7f, 0x27, 0x01, 0x23, 0xa8, 0x4d, 0xaa, 0xb6, 0xbe,
  0xca, 0x0b, 0x21, 0x2d, 0xff, 0xd1, 0xf5, 0x1c, 0x16, 0xb0, 0xff, 0xff,
  0x04, 0x00, 0x00, 0x00, 0x10, 0x00, 0x00, 0x00, 0x01, 0x00, 0x00, 0x00,
  0x3c, 0x00, 0x00, 0x00, 0x01, 0x00, 0x00, 0x00, 0x14, 0x00, 0x00, 0x00,
  0x78, 0x9d, 0xff, 0xff, 0x7c, 0x9d, 0xff, 0xff, 0x80, 0x9d, 0xff, 0xff,
  0x84, 0x9d, 0xff, 0xff, 0x88, 0x9d, 0xff, 0xff, 0x8c, 0x9d, 0xff, 0xff,
  0x4a, 0xb0, 0xff, 0xff, 0x04, 0x00, 0x00, 0x00, 0x10, 0x00, 0x00, 0x00,
  0x01, 0x00, 0x00, 0x00, 0x01, 0x00, 0x00, 0x00, 0x81, 0x00, 0x00, 0x00,
  0x05, 0x00, 0x00, 0x00, 0xac, 0x9d, 0xff, 0xff, 0x6a, 0xb0, 0xff, 0xff,
  0x04, 0x00, 0x00, 0x00, 0x14, 0x00, 0x00, 0x00, 0xe2, 0x00, 0x00, 0x00,
  0xc6, 0x05, 0x00, 0x00, 0xd6, 0xff, 0xff, 0xff, 0xaa, 0x01, 0x00, 0x00,
  0xca, 0x02, 0x00, 0x00, 0x8a, 0xb0, 0xff, 0xff, 0x04, 0x00, 0x00, 0x00,
  0x10, 0x00, 0x00, 0x00, 0x01, 0x00, 0x00, 0x00, 0x01, 0x00, 0x00, 0x00,
  0x04, 0x01, 0x00, 0x00, 0x01, 0x00, 0x00, 0x00, 0xa6, 0xb0, 0xff, 0xff,
  0x04, 0x00, 0x00, 0x00, 0x50, 0x46, 0x00, 0x00, 0xff, 0xfc, 0x02, 0xfe,
  0xe2, 0xf0, 0x16, 0x0b, 0xe9, 0x05, 0x1a, 0xf9, 0xfd, 0x1a, 0x12, 0xd3,
  0x00, 0x02, 0xcf, 0xf5, 0x00, 0x14, 0x03, 0x16, 0xd5, 0x0c, 0x09, 0x08,
  0xfe, 0x09, 0xff, 0xf4, 0x06, 0x11, 0xf7, 0xc5, 0x01, 0x04, 0xf5, 0xee,
  0x0c, 0x05, 0xeb, 0x1d, 0xfa, 0x00, 0xf3, 0xf8, 0x0d, 0xf8, 0x02, 0xfa,
  0x09, 0xf7, 0x01, 0x11, 0xf1, 0xed, 0xd5, 0xe7, 0xf2, 0x0d, 0xe7, 0x09,
  0x1f, 0x12, 0xd5, 0xe4, 0x0d, 0xed, 0x09, 0x00, 0x0e, 0xfc, 0xfd, 0x17,
  0xc1, 0xf7, 0xdd, 0xf6, 0xda, 0x1e, 0xd1, 0xfc, 0x0d, 0x31, 0xe8, 0x05,
  0xf3, 0xd4, 0xd3, 0xf3, 0xcd, 0xed, 0xe6, 0x1e, 0x00, 0xbc, 0xf8, 0x27,
  0xe9, 0x22, 0x09, 0x00, 0xe8, 0xff, 0x14, 0xfa, 0xbd, 0xf1, 0xfa, 0xfc,
  0xca, 0xdf, 0xff, 0x0d, 0x22, 0xb9, 0xea, 0xfb, 0x0e, 0xe9, 0xfb, 0xfe,
  0xf4, 0xec, 0xe8, 0xf0, 0xdf, 0x00, 0xdf, 0x27, 0xcd, 0xf6, 0xff, 0x1d,
  0x06, 0xe5, 0xed, 0xed, 0x23, 0xcc, 0x00, 0x03, 0xf1, 0xda, 0x04, 0x01,
  0xeb, 0x19, 0x03, 0x07, 0xf7, 0x1d, 0x15, 0xf3, 0x0f, 0x0d, 0xdc, 0xe7,
  0x09, 0x0c, 0x02, 0x02, 0xee, 0xdd, 0xf2, 0xef, 0x04, 0x06, 0x03, 0x0b,
  0x06, 0x11, 0x01, 0xdb, 0xf7, 0x01, 0xfa, 0xfa, 0x01, 0x0f, 0x05, 0x0a,
  0x09, 0x02, 0xff, 0x07, 0x13, 0xf6, 0x07, 0xf4, 0x06, 0x0c, 0x03, 0xf4,
  0xe7, 0x09, 0xf4, 0xf2, 0xfb, 0xfa, 0xf4, 0xfe, 0xf6, 0xe1, 0xee, 0xe9,
  0xf2, 0xf3, 0xfe, 0x06, 0xf3, 0xf9, 0x07, 0x07, 0xe4, 0x01, 0x0b, 0x01,
  0x11, 0x04, 0xef, 0x14, 0x0c, 0xfe, 0x0a, 0x1f, 0x05, 0xf5, 0xf7, 0xff,
  0xec, 0x03, 0x06, 0x0d, 0xe8, 0x06, 0x14, 0xe2, 0x13, 0x0f, 0x2c, 0x09,
  0x19, 0x19, 0x13, 0x0c, 0x0f, 0x0f, 0x05, 0x03, 0x24, 0x13, 0x15, 0x03,
  0x2e, 0x1f, 0xe2, 0xf1, 0x0f, 0xf4, 0x20, 0x20, 0x1f, 0x08, 0xed, 0x16,
  0x1f, 0x12, 0x09, 0x02, 0x1a, 0x1b, 0xfc, 0x0c, 0x19, 0x04, 0x16, 0xef,
  0xf0, 0x0e, 0xf9, 0x0e, 0xf2, 0xf7, 0xff, 0x09, 0x12, 0x03, 0xf1, 0xee,
  0xff, 0x00, 0xf7, 0xfc, 0xf6, 0xf0, 0x33, 0x2d, 0xff, 0x1e, 0x01, 0x18,
  0xf6, 0x05, 0xfa, 0x12, 0xeb, 0xed, 0xfa, 0xfb, 0xf2, 0xf3, 0xfe, 0x17,
  0xf5, 0xe4, 0x0f, 0x28, 0xfa, 0x15, 0x15, 0x05, 0xe9, 0xfd, 0x15, 0x13,
  0xfb, 0xee, 0xe9, 0xf0, 0xf5, 0xe3, 0xeb, 0xea, 0x1b, 0xf9, 0x0f, 0x2e,
  0x03, 0xfa, 0x0c, 0x0b, 0xdc, 0xfa, 0x0a, 0x1c, 0xf3, 0x09, 0xff, 0xfa,
  0x10, 0x00, 0xfc, 0xdf, 0x0f, 0x05, 0x10, 0x34, 0x17, 0x0d, 0x03, 0x0e,
  0xe5, 0xfe, 0x03, 0xff, 0x07, 0x18, 0x04, 0xef, 0x0d, 0xf9, 0xff, 0xea,
  0x0a, 0x11, 0x07, 0x22, 0x02, 0x03, 0x13, 0x04, 0x11, 0x0e, 0x18, 0x07,
  0x0d, 0x11, 0x06, 0x05, 0x0c, 0x04, 0xf9, 0xf9, 0x18, 0x1d, 0x35, 0x2b,
  0x0f, 0xed, 0x08, 0x14, 0x0d, 0xff, 0x04, 0x0b, 0xfc, 0x10, 0x11, 0x16,
  0x21, 0xf8, 0x0a, 0x18, 0x13, 0x10, 0xe7, 0x36, 0x0e, 0xe1, 0xdd, 0x05,
  0x07, 0xef, 0xd6, 0xe5, 0x15, 0xfe, 0x14, 0xf9, 0x14, 0xfe, 0x0f, 0xea,
  0xfa, 0x07, 0xe7, 0x0a, 0x13, 0xee, 0xcc, 0x06, 0x15, 0xf7, 0xca, 0xd0,
  0x03, 0xfa, 0x04, 0xfe, 0x08, 0x0c, 0x1e, 0x0e, 0xe2, 0x03, 0xfc, 0xf0,
  0x03, 0x1c, 0xe4, 0x0f, 0x10, 0xf4, 0xea, 0xf3, 0xf5, 0xf5, 0x05, 0x00,
  0xf5, 0x0b, 0x0d, 0x25, 0xc8, 0xf1, 0x0c, 0xfe, 0x19, 0x09, 0xdd, 0x0f,
  0xfc, 0xe5, 0xf1, 0x07, 0xff, 0x00, 0xf1, 0xe9, 0xed, 0x0a, 0x0b, 0x04,
  0xdc, 0xf9, 0xf6, 0x1a, 0x20, 0x30, 0xfe, 0x19, 0xe2, 0xf6, 0x25, 0x15,
  0x09, 0x16, 0xef, 0xc7, 0xe3, 0x02, 0xf9, 0xd3, 0x0f, 0xfd, 0x13, 0x17,
  0xf1, 0x0f, 0xf4, 0x07, 0xf6, 0x03, 0x04, 0xf1, 0xfa, 0x12, 0xf5, 0xfa,
  0xf3, 0xe0, 0xfa, 0xee, 0x0d, 0xf4, 0xe4, 0x13, 0xdc, 0x21, 0xea, 0x0a,
  0xf7, 0x1f, 0x01, 0x13, 0xfa, 0xef, 0xe2, 0xfa, 0xfc, 0xcf, 0xf2, 0x09,
  0x08, 0xec, 0xfa, 0x19, 0xd5, 0x13, 0x04, 0xff, 0xfd, 0x0b, 0x11, 0x0a,
  0xe1, 0xec, 0xdf, 0xfe, 0xf0, 0xd8, 0xe6, 0x0d, 0xf6, 0xcc, 0x15, 0x12,
  0xec, 0x1e, 0xfc, 0x19, 0xf8, 0x28, 0x02, 0x00, 0xe6, 0xf7, 0xe8, 0xe6,
  0xef, 0xec, 0xe3, 0xe9, 0x0c, 0xdf, 0xee, 0x0d, 0xfa, 0x16, 0x3f, 0xfc,
  0xde, 0xdf, 0x18, 0x0b, 0xf2, 0x06, 0x03, 0xe3, 0x12, 0xe2, 0xf8, 0xf5,
  0x29, 0x1e, 0x27, 0x02, 0xf1, 0x0b, 0x1e, 0x0f, 0x18, 0x03, 0x08, 0x15,
  0xfb, 0x13, 0x1e, 0x01, 0x1c, 0xf4, 0x03, 0x0a, 0xfa, 0x2d, 0x0c, 0x04,
  0x12, 0x02, 0x01, 0x12, 0x0d, 0x05, 0x03, 0x17, 0x16, 0x1d, 0x00, 0x03,
  0x0a, 0x0c, 0xfd, 0xef, 0x17, 0x18, 0x1f, 0xf8, 0x14, 0x06, 0x13, 0x0a,
  0x0b, 0x06, 0x06, 0x17, 0x13, 0x14, 0x16, 0xfe, 0x1c, 0xf8, 0x02, 0xec,
  0xf7, 0x20, 0x0e, 0xe3, 0x09, 0xfd, 0x0d, 0xfe, 0x29, 0x18, 0xfc, 0xff,
  0x0e, 0xf8, 0x20, 0x0d, 0x1e, 0x01, 0x0d, 0xee, 0x0c, 0x0a, 0x02, 0xe3,
  0x08, 0x01, 0xf8, 0x05, 0x15, 0xe8, 0xef, 0xee, 0x05, 0xff, 0x03, 0x16,
  0x14, 0x14, 0x0e, 0x08, 0xe5, 0xfe, 0x03, 0xeb, 0x08, 0x06, 0x0f, 0x05,
  0x04, 0xcb, 0xf8, 0x04, 0xfd, 0x0a, 0xf9, 0x05, 0xf3, 0xf9, 0x07, 0x15,
  0xee, 0x04, 0x2a, 0x22, 0x0c, 0x15, 0x18, 0x04, 0xfc, 0xca, 0x30, 0x16,
  0x17, 0xf9, 0x06, 0x1f, 0x01, 0x1a, 0x1b, 0x33, 0x1e, 0x16, 0x46, 0x31,
  0xf6, 0x27, 0x17, 0x02, 0x16, 0x15, 0x15, 0xf8, 0x0c, 0x12, 0x0c, 0x06,
  0x20, 0x0e, 0x18, 0x0b, 0x0b, 0x25, 0x04, 0xe8, 0x08, 0x28, 0xf4, 0x1d,
  0x26, 0x44, 0xfa, 0xf4, 0xfe, 0x01, 0x06, 0x01, 0xf2, 0x04, 0x08, 0xf2,
  0xe1, 0xf5, 0xf6, 0xd6, 0xf9, 0x24, 0xec, 0x06, 0xf3, 0x11, 0xf2, 0x21,
  0x08, 0xf8, 0xf7, 0xfb, 0xfe, 0xf1, 0xfa, 0xfe, 0xe9, 0xf1, 0x01, 0x45,
  0xf5, 0x0b, 0x2b, 0x08, 0x00, 0xf4, 0x15, 0x00, 0xf5, 0x04, 0xfc, 0x0b,
  0x00, 0xfd, 0x03, 0x13, 0x2d, 0xf6, 0xf6, 0x49, 0x01, 0x08, 0x1c, 0xff,
  0x0a, 0x02, 0x1d, 0xfa, 0x02, 0x02, 0xfd, 0x03, 0x00, 0x07, 0xfa, 0x1e,
  0x2a, 0x06, 0x03, 0x10, 0x16, 0x0a, 0x0f, 0x0e, 0xf4, 0xf6, 0xf6, 0xfd,
  0x06, 0x03, 0x11, 0xf7, 0x0d, 0x04, 0xf7, 0x03, 0x27, 0x0d, 0x03, 0x11,
  0x0e, 0xf9, 0xf2, 0x08, 0x09, 0xec, 0xfb, 0xf1, 0x18, 0x1b, 0x01, 0x03,
  0x00, 0x03, 0x09, 0xf5, 0xe8, 0x14, 0x11, 0x25, 0x0a, 0x17, 0x1d, 0x12,
  0x0c, 0xf9, 0x19, 0x02, 0xf4, 0x0b, 0x0e, 0x0f, 0x1d, 0xfb, 0x0b, 0x0f,
  0x0b, 0x00, 0x0f, 0x0d, 0x01, 0x10, 0xec, 0x03, 0x05, 0xfc, 0xf6, 0xe8,
  0x0c, 0x07, 0xfb, 0xf6, 0x0f, 0x07, 0x02, 0xef, 0xf6, 0xfd, 0x21, 0xf3,
  0xfc, 0x28, 0x00, 0x03, 0xee, 0x13, 0x09, 0x08, 0x05, 0x06, 0xf8, 0xec,
  0xfe, 0xff, 0xf5, 0xf8, 0xea, 0x07, 0x04, 0xef, 0x0e, 0x11, 0x03, 0xf5,
  0x2b, 0xef, 0x04, 0x00, 0xff, 0x09, 0x04, 0x0b, 0x0b, 0xf9, 0xf4, 0x2f,
  0xe5, 0xfa, 0xe9, 0x09, 0x04, 0x17, 0xef, 0xfc, 0x2c, 0x16, 0xf0, 0xfa,
  0x06, 0x00, 0x0a, 0x2e, 0x06, 0x0a, 0x0a, 0x45, 0xef, 0x0d, 0x02, 0xf7,
  0x08, 0x18, 0xdc, 0x0d, 0x1e, 0x19, 0xe5, 0xde, 0x0c, 0xfa, 0xf5, 0x03,
  0xfb, 0x1c, 0x0e, 0x0e, 0xec, 0xf5, 0xdc, 0x1b, 0x06, 0x11, 0xf0, 0x07,
  0xed, 0x15, 0xf1, 0x07, 0xf4, 0xfe, 0xf2, 0xee, 0xf1, 0x0c, 0x05, 0x0f,
  0xfd, 0xfa, 0x06, 0x3f, 0xfc, 0x03, 0xdb, 0x16, 0xfd, 0x1a, 0x1a, 0x24,
  0xf4, 0xef, 0xfe, 0xfc, 0xf5, 0x17, 0x10, 0x16, 0x05, 0xf1, 0xf6, 0x37,
  0x05, 0x27, 0x32, 0x0f, 0xdc, 0x0c, 0x2a, 0x32, 0x03, 0x05, 0xf6, 0xf1,
  0xfe, 0x08, 0xff, 0xdb, 0x36, 0xf5, 0x1b, 0xf1, 0x06, 0x23, 0x0e, 0xf8,
  0xf4, 0x10, 0xee, 0xfa, 0x11, 0xff, 0x01, 0xe2, 0x08, 0x03, 0xea, 0xe2,
  0x10, 0xfe, 0xe9, 0xdd, 0xfd, 0xf2, 0xef, 0xfd, 0x04, 0xfa, 0xef, 0x06,
  0xf0, 0xec, 0x02, 0xee, 0x01, 0xfa, 0x03, 0x05, 0xe4, 0xf0, 0x00, 0xfa,
  0xff, 0xfc, 0x14, 0x0e, 0xf8, 0x19, 0x02, 0xfd, 0xf0, 0xf8, 0xf6, 0x0e,
  0xf9, 0xef, 0x0c, 0x07, 0x1f, 0x01, 0xf1, 0xe4, 0x04, 0x04, 0xfe, 0xf4,
  0xe3, 0xff, 0xe0, 0xf2, 0x05, 0x07, 0xff, 0x0b, 0xf5, 0xf8, 0x06, 0x05,
  0x10, 0xf9, 0xed, 0xec, 0x02, 0xf3, 0x06, 0x07, 0xf0, 0xdc, 0xf7, 0xf2,
  0xf4, 0x01, 0x0e, 0x0b, 0xf3, 0xf7, 0xff, 0x16, 0xe3, 0xf5, 0x05, 0xf4,
  0x08, 0x04, 0xf2, 0x11, 0xfc, 0xe9, 0x05, 0xea, 0x12, 0xf9, 0x0b, 0x12,
  0x03, 0xf6, 0x0b, 0x0e, 0xdc, 0x0d, 0x0e, 0x04, 0xf3, 0xfc, 0xe1, 0xfc,
  0xfa, 0xeb, 0xc7, 0xd1, 0xfa, 0xfa, 0xf2, 0xff, 0x0a, 0xde, 0xe5, 0x27,
  0xce, 0xe8, 0x36, 0xff, 0x00, 0x00, 0xf7, 0x08, 0x1a, 0xfb, 0xf3, 0xfa,
  0x09, 0x04, 0xfb, 0x00, 0x00, 0xef, 0xfa, 0x3a, 0xec, 0x09, 0x2f, 0x11,
  0xf3, 0x08, 0xfe, 0x07, 0x38, 0xfa, 0x03, 0x10, 0x01, 0xfa, 0x07, 0x0a,
  0x0b, 0x17, 0x12, 0x1c, 0xfb, 0x0e, 0xfd, 0xf9, 0xf4, 0xf9, 0x0d, 0x06,
  0x1b, 0xe5, 0x03, 0xfc, 0xe8, 0xf9, 0x0b, 0x0d, 0x03, 0x0b, 0x19, 0xff,
  0x00, 0x03, 0x14, 0xfc, 0x07, 0xf3, 0xf9, 0x0f, 0xf1, 0xcd, 0x10, 0xf7,
  0x0b, 0xf0, 0x05, 0x05, 0xe7, 0x19, 0x18, 0xf1, 0xe9, 0x1a, 0x0e, 0x02,
  0x09, 0xee, 0xf6, 0xfb, 0xf6, 0xf0, 0x2e, 0x20, 0xee, 0xe1, 0x07, 0x2a,
  0xff, 0x1b, 0x22, 0xf3, 0x09, 0x2e, 0x0f, 0x04, 0x01, 0x19, 0x12, 0xf9,
  0xcf, 0x1c, 0x20, 0x0f, 0xff, 0xf5, 0x03, 0xf2, 0x04, 0x2e, 0x0e, 0xb3,
  0x0d, 0xfd, 0x06, 0x11, 0xd6, 0x07, 0x0c, 0x0a, 0xee, 0x19, 0xfd, 0x07,
  0x01, 0xf2, 0xf5, 0xc0, 0x04, 0xfa, 0xf4, 0xc6, 0xe4, 0xdf, 0x1c, 0x2c,
  0xff, 0xc4, 0x0d, 0x01, 0xcb, 0xf1, 0x0c, 0x09, 0x15, 0x0f, 0xda, 0xcf,
  0xd6, 0xd8, 0xe8, 0xf6, 0xf4, 0xd4, 0x12, 0x19, 0x0c, 0x15, 0x0c, 0x0d,
  0xeb, 0xf5, 0x0d, 0xf9, 0xfe, 0x05, 0x00, 0x00, 0x06, 0x01, 0xf9, 0x12,
  0x11, 0x03, 0x0a, 0x1b, 0xfd, 0x21, 0xee, 0x06, 0x0a, 0xfc, 0x14, 0x1d,
  0x10, 0x06, 0x0e, 0xf6, 0x03, 0x17, 0x15, 0x08, 0xfe, 0x09, 0xf1, 0x1c,
  0xfb, 0x14, 0x25, 0x0c, 0xfd, 0x0f, 0xee, 0x1f, 0xfd, 0x0e, 0xf3, 0xfe,
  0xff, 0xfb, 0x07, 0xe8, 0x1c, 0xf9, 0x2b, 0x18, 0xfb, 0x25, 0xc7, 0xf7,
  0xf5, 0xd3, 0xd8, 0x10, 0x05, 0xf4, 0xea, 0xf1, 0x07, 0xfd, 0xfa, 0x14,
  0xd6, 0xee, 0xe5, 0x3c, 0x0b, 0x07, 0xdd, 0x07, 0xf9, 0xff, 0x08, 0xdc,
  0xef, 0x10, 0x12, 0xf8, 0x06, 0xf3, 0xf9, 0xef, 0xf1, 0x01, 0xf5, 0x0c,
  0xe6, 0x20, 0xf1, 0x0a, 0x13, 0x3e, 0xff, 0x10, 0x13, 0xee, 0x07, 0xf9,
  0x0f, 0xfe, 0xfa, 0x0e, 0x0f, 0xf4, 0xe7, 0xd6, 0xd7, 0x0d, 0x16, 0x03,
  0xf4, 0x27, 0xef, 0xee, 0xfd, 0xdc, 0x06, 0xea, 0x08, 0xee, 0xe9, 0xed,
  0x05, 0xe5, 0xfa, 0xde, 0xe9, 0xe8, 0xeb, 0x04, 0x04, 0x16, 0xee, 0xf1,
  0xfe, 0xed, 0x0c, 0xf4, 0x07, 0xf9, 0xf0, 0x0e, 0xed, 0x00, 0x0f, 0xea,
  0xfc, 0x18, 0xfb, 0xf9, 0x0e, 0x13, 0xe3, 0xf2, 0x01, 0xf4, 0x0d, 0x01,
  0xff, 0xf0, 0xfc, 0x1b, 0x03, 0x00, 0x0a, 0x04, 0xdf, 0xf9, 0xfc, 0x1c,
  0x00, 0xf7, 0x0a, 0x19, 0x00, 0xf8, 0x0a, 0x00, 0xf9, 0xf5, 0xfd, 0x21,
  0xff, 0xf5, 0x24, 0xf4, 0xee, 0xd9, 0xea, 0x01, 0xfb, 0xce, 0xfa, 0xfe,
  0xf4, 0x00, 0xfa, 0x0d, 0xff, 0x01, 0x10, 0x12, 0x04, 0xf3, 0xf5, 0xda,
  0xfc, 0xf0, 0x00, 0xf9, 0xed, 0xf7, 0xf5, 0xef, 0x0a, 0x09, 0x09, 0xf8,
  0xf5, 0x11, 0x11, 0x02, 0xfc, 0x09, 0x20, 0xc5, 0x0e, 0x16, 0x16, 0x02,
  0xed, 0x20, 0x11, 0xfb, 0x05, 0x08, 0x06, 0x17, 0x01, 0x0e, 0x02, 0xe4,
  0x05, 0xff, 0x0e, 0xcc, 0x1a, 0x04, 0x13, 0xfe, 0xf9, 0x0a, 0xff, 0xf5,
  0xfe, 0x08, 0x09, 0x10, 0x09, 0xf3, 0x02, 0xdd, 0x09, 0x08, 0xf6, 0xf2,
  0x12, 0x03, 0xf8, 0xfb, 0x0a, 0x22, 0x04, 0xf0, 0x0e, 0x0b, 0x02, 0x19,
  0x16, 0x12, 0x03, 0x09, 0xf4, 0x0f, 0xf5, 0x12, 0x15, 0xfe, 0xfa, 0xfd,
  0x14, 0x0c, 0x06, 0x15, 0x14, 0x08, 0x1d, 0x0c, 0x01, 0x22, 0x1b, 0x08,
  0xf8, 0x12, 0x1a, 0x18, 0x02, 0x14, 0x15, 0xfa, 0x03, 0x3e, 0x1c, 0x05,
  0x0c, 0xfe, 0x12, 0x1e, 0x05, 0x1f, 0x17, 0xfd, 0x16, 0x17, 0x19, 0x02,
  0x09, 0x03, 0x0c, 0x0b, 0xfc, 0x05, 0xee, 0xf8, 0xf0, 0xf6, 0x06, 0x11,
  0xfd, 0x0f, 0x0f, 0x11, 0xf0, 0x00, 0x16, 0x04, 0xe4, 0xf4, 0xfc, 0x01,
  0x02, 0xf3, 0x11, 0x06, 0xfe, 0xef, 0xfe, 0x09, 0x02, 0x1d, 0x23, 0x0b,
  0xec, 0x0e, 0x0f, 0x0c, 0xf5, 0xf0, 0x01, 0x03, 0xfd, 0xf1, 0x0c, 0x0f,
  0xec, 0xef, 0xf3, 0x0f, 0xfd, 0x21, 0x34, 0x06, 0x02, 0xfb, 0xfd, 0xff,
  0x02, 0xfc, 0x09, 0xe8, 0x18, 0xe7, 0x03, 0x04, 0xf4, 0xeb, 0xf5, 0x26,
  0xfd, 0x29, 0x2b, 0x17, 0xf1, 0x15, 0x17, 0xea, 0xf4, 0xfa, 0xfe, 0x00,
  0xfe, 0xf8, 0xf5, 0xf7, 0x05, 0x04, 0x05, 0xfe, 0xfc, 0x00, 0xfe, 0xfe,
  0xf1, 0xff, 0xfb, 0x01, 0xf9, 0xff, 0x04, 0xfb, 0xf2, 0xf8, 0xfa, 0xfe,
  0x00, 0xfc, 0xfe, 0x02, 0x01, 0x06, 0xf8, 0x01, 0x02, 0xf8, 0xfd, 0xfc,
  0xfb, 0x06, 0x03, 0xfa, 0xf3, 0x03, 0xfe, 0x07, 0xfe, 0x06, 0x01, 0xf9,
  0x02, 0x05, 0xfd, 0x00, 0xff, 0xef, 0x0a, 0xf6, 0xf7, 0xf3, 0x07, 0x09,
  0xf4, 0xfd, 0x0a, 0x05, 0x04, 0x01, 0xf1, 0x03, 0xff, 0x00, 0xfa, 0xf2,
  0x09, 0x02, 0xf3, 0x07, 0xf4, 0xf3, 0xfe, 0xf5, 0x03, 0xff, 0xfe, 0x08,
  0xf4, 0x08, 0x02, 0x04, 0xfa, 0xf4, 0xf9, 0xf8, 0xfc, 0xf2, 0xf7, 0xf2,
  0x05, 0xf2, 0xf4, 0x07, 0xef, 0xef, 0xf5, 0xfe, 0x01, 0x05, 0x07, 0xf2,
  0x05, 0xfc, 0xf4, 0xef, 0xf6, 0xf4, 0x03, 0xfe, 0xfd, 0xf5, 0x01, 0xfa,
  0x02, 0xf0, 0x05, 0x05, 0xfb, 0xfa, 0xf9, 0xf8, 0xf5, 0xff, 0xfa, 0x05,
  0xff, 0x05, 0x0a, 0x03, 0x00, 0x02, 0x00, 0x0a, 0x02, 0xf7, 0xf0, 0x04,
  0xfd, 0xf7, 0xff, 0x04, 0x07, 0xf5, 0x04, 0x04, 0xf9, 0x02, 0x00, 0xf3,
  0x08, 0x04, 0xf5, 0x0a, 0xfa, 0x01, 0xfa, 0x07, 0xf7, 0x02, 0x04, 0x05,
  0xfb, 0x07, 0xf6, 0x05, 0xff, 0xf7, 0xf1, 0x03, 0xf4, 0xff, 0xf3, 0x06,
  0xf6, 0xf8, 0x05, 0x02, 0x09, 0xf4, 0x00, 0xf6, 0xfa, 0x06, 0xf6, 0x07,
  0x02, 0x04, 0xf5, 0xf9, 0x05, 0xf5, 0x08, 0x02, 0x02, 0xfe, 0xf7, 0xf6,
  0x03, 0xfd, 0xf5, 0xf9, 0x08, 0xf7, 0x01, 0xf9, 0xfb, 0xfa, 0xf5, 0xff,
  0x04, 0xf4, 0xf7, 0xfc, 0x00, 0xfd, 0x05, 0x03, 0xfe, 0x09, 0xf3, 0xf8,
  0x05, 0xfd, 0xfd, 0xf3, 0x00, 0x04, 0x01, 0xfa, 0x08, 0xfd, 0x01, 0xfc,
  0x02, 0xff, 0x06, 0xf5, 0xf4, 0xfc, 0xfd, 0x09, 0x07, 0x09, 0xf5, 0xfe,
  0xf7, 0xf8, 0xf3, 0x06, 0x08, 0x02, 0x02, 0x01, 0x00, 0xf3, 0x06, 0xf5,
  0x04, 0x04, 0xf6, 0xf4, 0x00, 0xfa, 0xf2, 0xf8, 0x04, 0xf6, 0x02, 0x03,
  0xfe, 0xfa, 0x09, 0x06, 0xf4, 0xfd, 0x05, 0xf6, 0xf6, 0xff, 0xfd, 0x07,
  0x05, 0xf7, 0xf9, 0x05, 0xf8, 0x08, 0x08, 0x04, 0xff, 0xf8, 0x06, 0xfe,
  0x02, 0xfd, 0xf9, 0xf2, 0xf4, 0x08, 0xf6, 0xfb, 0x04, 0xf6, 0xf1, 0xf4,
  0x03, 0x08, 0x09, 0xff, 0x09, 0x02, 0xf6, 0x08, 0xf9, 0x04, 0xfa, 0x05,
  0xfe, 0x0a, 0x04, 0xf2, 0xf3, 0xfe, 0xff, 0xfc, 0xfc, 0x02, 0xf1, 0xf2,
  0xf9, 0xf3, 0xf9, 0x0b, 0xfd, 0xf6, 0xf2, 0x06, 0xfc, 0xf9, 0xf3, 0x09,
  0xf3, 0xf3, 0x09, 0xff, 0xfa, 0xf8, 0xf1, 0xf4, 0xf3, 0xff, 0xf8, 0xf8,
  0xf1, 0xfb, 0xfa, 0x01, 0x01, 0xfa, 0x05, 0x05, 0xf6, 0xf2, 0xf4, 0xfb,
  0xf3, 0x04, 0x03, 0xfa, 0xf2, 0x03, 0x05, 0x05, 0xf3, 0xf2, 0xfa, 0xfe,
  0x05, 0x06, 0x07, 0x02, 0xf5, 0xf3, 0xfc, 0x06, 0xfa, 0x00, 0xfc, 0x05,
  0xf7, 0xfd, 0x02, 0x07, 0xf8, 0xfd, 0xf1, 0xf5, 0xfd, 0xf8, 0xf6, 0xfa,
  0xf1, 0xfb, 0xf4, 0xf7, 0xf4, 0xf5, 0xfc, 0x04, 0x01, 0xf6, 0xf5, 0xfd,
  0xf9, 0xfe, 0x01, 0xf3, 0x04, 0x02, 0xf8, 0xf3, 0x06, 0xfc, 0xff, 0x05,
  0x01, 0xfb, 0xf5, 0xf2, 0x07, 0x07, 0x0a, 0x0a, 0x03, 0xef, 0xf9, 0xfe,
  0xfe, 0x05, 0xf4, 0xf1, 0xff, 0x03, 0x03, 0x00, 0xf4, 0xf2, 0x04, 0xf3,
  0x02, 0xf4, 0xfa, 0xfb, 0x04, 0x06, 0xfd, 0x06, 0xfa, 0xf6, 0x03, 0xfd,
  0xf1, 0xfb, 0x05, 0xff, 0x05, 0xfb, 0xfa, 0xf6, 0xfe, 0x01, 0x0a, 0x08,
  0xfd, 0x06, 0xf8, 0x02, 0xf9, 0xf7, 0xff, 0x03, 0x05, 0x01, 0xf6, 0xfa,
  0xfa, 0xfb, 0xfb, 0x03, 0xff, 0xf0, 0xfb, 0xf4, 0x03, 0xfc, 0xf9, 0xf6,
  0xf4, 0xf8, 0xf6, 0xf1, 0x09, 0xfa, 0xf8, 0x00, 0xf7, 0xfa, 0x00, 0xf7,
  0xf1, 0x05, 0xf9, 0x08, 0xf0, 0xfd, 0xfa, 0x03, 0x0a, 0x08, 0xfa, 0x04,
  0xff, 0x03, 0xf2, 0x02, 0x03, 0x04, 0xf3, 0x09, 0xf3, 0xf3, 0xf3, 0xf7,
  0xfd, 0xf7, 0xfd, 0xf3, 0xff, 0xf6, 0x01, 0xf6, 0x0a, 0xf3, 0x00, 0xf6,
  0xfc, 0xf4, 0x08, 0x0c, 0xfd, 0xf8, 0xf4, 0xfe, 0xf1, 0x01, 0x07, 0x01,
  0x08, 0xf9, 0xf5, 0xfd, 0xff, 0x02, 0x01, 0xef, 0x04, 0x03, 0x07, 0x0b,
  0x06, 0x08, 0x01, 0x01, 0x02, 0xfc, 0xf2, 0xff, 0x08, 0xf4, 0xff, 0xf6,
  0xfb, 0xfb, 0xfc, 0xff, 0x08, 0xfd, 0x07, 0x05, 0xd8, 0x02, 0xf2, 0x0a,
  0x0c, 0x1b, 0x0c, 0x1b, 0xea, 0xc2, 0x0c, 0x03, 0xf2, 0xf5, 0x06, 0x09,
  0x03, 0xe1, 0xea, 0x1f, 0xfa, 0xfe, 0x11, 0x0c, 0xfe, 0xf8, 0xf9, 0xe1,
  0xf1, 0xd8, 0xe6, 0x06, 0xfe, 0x06, 0x02, 0x0f, 0xff, 0xe3, 0xe7, 0x16,
  0xf6, 0xf3, 0xee, 0xfe, 0xff, 0xeb, 0xe8, 0xf5, 0xe6, 0xe8, 0xfc, 0x12,
  0xea, 0xf9, 0x06, 0x23, 0xe8, 0xdf, 0x05, 0x05, 0xf3, 0xf6, 0xf7, 0x0c,
  0xfc, 0x01, 0x03, 0xff, 0x09, 0xf8, 0xe1, 0x09, 0xe7, 0x00, 0x08, 0x0b,
  0xff, 0xe8, 0xfa, 0x06, 0xf6, 0xfd, 0x0b, 0x15, 0xe1, 0x07, 0x09, 0x1e,
  0xf5, 0x05, 0xf9, 0xfb, 0xe4, 0xfe, 0xfe, 0x00, 0x20, 0xf9, 0x13, 0xef,
  0x1b, 0x03, 0x16, 0x0a, 0xe6, 0x09, 0x0a, 0x05, 0x09, 0x2d, 0xf9, 0xf7,
  0x08, 0x0d, 0xfe, 0xe5, 0x34, 0xfa, 0x14, 0xe8, 0x28, 0xfb, 0x17, 0x01,
  0x11, 0xf4, 0x0c, 0x18, 0x16, 0x31, 0x11, 0x1e, 0x1c, 0xf4, 0x06, 0x23,
  0x19, 0x10, 0x08, 0xff, 0x2e, 0xf6, 0x14, 0x02, 0xfa, 0x0d, 0x03, 0x00,
  0x13, 0x29, 0x13, 0x19, 0x24, 0x0b, 0x1c, 0x16, 0xff, 0x13, 0x00, 0xc5,
  0x1b, 0x1d, 0xf1, 0xf9, 0x0b, 0xfe, 0xe9, 0xdc, 0x23, 0x0b, 0x1a, 0x17,
  0x23, 0x1a, 0x10, 0xfe, 0xea, 0x35, 0xe1, 0x01, 0x11, 0xe8, 0xfa, 0x0d,
  0xf8, 0xd5, 0x03, 0x02, 0x17, 0x04, 0x03, 0xf8, 0x07, 0x18, 0x00, 0xdd,
  0xef, 0xf5, 0xf7, 0x10, 0x01, 0xe6, 0x0a, 0x00, 0xf1, 0xbe, 0x05, 0xe8,
  0xfb, 0xf3, 0x05, 0xf9, 0xfc, 0xf4, 0x05, 0x0a, 0x35, 0x03, 0x07, 0xe5,
  0x14, 0xec, 0xed, 0x03, 0xf6, 0xe5, 0xf8, 0x1a, 0xfe, 0x0b, 0xe8, 0xee,
  0xfb, 0xf2, 0xfa, 0x10, 0xec, 0xf8, 0x1a, 0xd8, 0xf7, 0xfe, 0x1b, 0x13,
  0x18, 0x31, 0x24, 0x05, 0x08, 0x0f, 0x0f, 0x0e, 0x30, 0x18, 0x0c, 0x02,
  0x1e, 0x1f, 0xf5, 0xea, 0xde, 0x17, 0x1f, 0x07, 0x45, 0x3e, 0x08, 0x1f,
  0x18, 0xfc, 0x18, 0xfd, 0x0d, 0x04, 0xfc, 0x32, 0x1b, 0xf0, 0x1b, 0xe7,
  0xf2, 0x05, 0x21, 0xff, 0xde, 0xfe, 0xfa, 0x1b, 0xec, 0xf6, 0x08, 0x0a,
  0x07, 0xf6, 0xea, 0x07, 0x13, 0xe2, 0x13, 0x1e, 0x15, 0x00, 0xdd, 0xfd,
  0xff, 0xfe, 0xda, 0xeb, 0x00, 0x0f, 0x02, 0x0a, 0x0e, 0xf8, 0x05, 0x13,
  0xfc, 0x14, 0xf0, 0x29, 0x06, 0x0f, 0xe3, 0x07, 0x04, 0xfd, 0xd7, 0x03,
  0xff, 0x08, 0xfe, 0x0f, 0x03, 0xfc, 0x08, 0x0e, 0xee, 0xfe, 0xe5, 0x31,
  0x12, 0x11, 0xd2, 0xf6, 0x00, 0x0b, 0xf4, 0xf7, 0x00, 0x0e, 0xf8, 0x03,
  0x02, 0x0f, 0x08, 0x10, 0xf1, 0xf3, 0xf2, 0x1a, 0x0b, 0x0e, 0x01, 0x00,
  0xe9, 0xf1, 0xf9, 0x05, 0x0b, 0x04, 0x04, 0xf1, 0xf5, 0x0b, 0x0a, 0xe7,
  0xf8, 0x05, 0xf1, 0xfa, 0xf7, 0x1a, 0xef, 0xf9, 0xe8, 0xe5, 0xea, 0xe4,
  0x01, 0xf9, 0xf7, 0x02, 0x0c, 0x08, 0x0c, 0xe1, 0xf0, 0x05, 0xe1, 0xfc,
  0xf6, 0xf0, 0xf3, 0xf8, 0xf8, 0xe7, 0xf2, 0x03, 0xfb, 0xf8, 0xf1, 0x18,
  0xf4, 0xf7, 0x08, 0xff, 0xec, 0xfa, 0xdc, 0x10, 0x00, 0xea, 0xe9, 0x0c,
  0x07, 0xe6, 0xf9, 0xf9, 0xf8, 0xfd, 0x05, 0x09, 0x00, 0x1c, 0x1c, 0xdb,
  0xfc, 0xf7, 0xd1, 0x0f, 0x10, 0x07, 0xf6, 0x0c, 0xfb, 0xfa, 0xe2, 0xe1,
  0xfc, 0xed, 0xf3, 0x02, 0xfb, 0x1e, 0x0f, 0xea, 0xe3, 0x08, 0x00, 0x0e,
  0x0f, 0x11, 0xf6, 0x00, 0xfa, 0x03, 0xff, 0x11, 0xfa, 0x02, 0xfd, 0xe7,
  0xf1, 0x04, 0x09, 0xfa, 0xe8, 0xf6, 0x17, 0x16, 0x16, 0x0f, 0x1f, 0x0d,
  0xe9, 0x04, 0x1a, 0x21, 0xef, 0x0e, 0x03, 0x15, 0xf0, 0x05, 0xec, 0x0e,
  0x27, 0x02, 0x04, 0x1a, 0x0a, 0xf7, 0x14, 0xf6, 0xfa, 0xe8, 0x03, 0xfa,
  0xfb, 0x0b, 0xfe, 0xfb, 0x00, 0x02, 0xf1, 0xf2, 0x0b, 0x06, 0x03, 0xf7,
  0xfa, 0xfe, 0xf9, 0xf4, 0x11, 0xf9, 0x00, 0xfd, 0x0d, 0xf9, 0x17, 0x07,
  0x06, 0xfe, 0xed, 0xff, 0x0a, 0x16, 0xfb, 0xf8, 0xfe, 0xf0, 0xf8, 0x0f,
  0x07, 0x16, 0x0f, 0x07, 0x07, 0x12, 0xf0, 0x10, 0x00, 0x07, 0x09, 0x0a,
  0x0e, 0xf9, 0xfd, 0x0a, 0x1b, 0xf1, 0x15, 0x0c, 0x14, 0x01, 0x05, 0x06,
  0x0b, 0x13, 0x08, 0x00, 0x17, 0xfe, 0x0b, 0x02, 0x11, 0x04, 0xff, 0xfc,
  0x08, 0xfc, 0x17, 0x0c, 0x1e, 0x0f, 0xff, 0xe2, 0x0c, 0x07, 0x01, 0xe9,
  0x10, 0x10, 0xfa, 0xf8, 0xf7, 0x08, 0x14, 0x0b, 0xff, 0xf2, 0x17, 0xfc,
  0xf6, 0xde, 0x23, 0x00, 0xf1, 0x0c, 0x0e, 0x05, 0xfa, 0x00, 0x0e, 0x0a,
  0xfc, 0x0b, 0x1d, 0xf9, 0x14, 0xfc, 0x13, 0xfe, 0x27, 0x0c, 0x0b, 0x08,
  0x11, 0x15, 0x19, 0x18, 0x1b, 0x1d, 0x0b, 0xfc, 0xf4, 0x28, 0x17, 0xd6,
  0x13, 0xef, 0xee, 0x0f, 0x40, 0x01, 0xf1, 0xe2, 0x19, 0x0f, 0x07, 0x1d,
  0x21, 0x2f, 0x1d, 0xff, 0xd5, 0x0d, 0xe1, 0xc2, 0x05, 0x0e, 0xd2, 0x08,
  0x11, 0xfd, 0xe7, 0xf1, 0x14, 0xfd, 0xf8, 0xf8, 0xf9, 0x1d, 0x08, 0xf4,
  0xcc, 0x13, 0x1f, 0x04, 0xf5, 0xfa, 0xfa, 0xf5, 0xe0, 0xf8, 0x08, 0x21,
  0xf7, 0xfc, 0xf7, 0xf0, 0xe6, 0x0c, 0xff, 0xfd, 0x15, 0xf9, 0x02, 0x2c,
  0x03, 0xf9, 0x0a, 0xf3, 0xdc, 0xf6, 0x06, 0x04, 0xf3, 0x06, 0x0a, 0x0c,
  0xed, 0x07, 0x02, 0xf5, 0x1a, 0x0b, 0x0e, 0xf7, 0x11, 0xe4, 0xf0, 0x15,
  0x15, 0xe7, 0xf4, 0x06, 0x2b, 0x13, 0x0b, 0xff, 0x09, 0x15, 0x1e, 0x14,
  0xf0, 0x14, 0xff, 0x08, 0x01, 0x16, 0x23, 0x0d, 0xee, 0xe9, 0x2c, 0x06,
  0x2f, 0x0c, 0x29, 0x30, 0xff, 0x14, 0x1c, 0x23, 0x0d, 0xfa, 0x33, 0x09,
  0x05, 0x21, 0x07, 0x01, 0xef, 0x29, 0x15, 0xf6, 0x1a, 0x10, 0xfe, 0x02,
  0x16, 0x27, 0x1e, 0x00, 0xf4, 0x1f, 0x08, 0xff, 0x0e, 0x0e, 0xf1, 0x05,
  0x02, 0x2c, 0x05, 0xf2, 0x0d, 0x0c, 0x03, 0xed, 0xf3, 0x05, 0x00, 0xec,
  0x0d, 0xee, 0xea, 0x1a, 0x11, 0xeb, 0x14, 0xfa, 0xe7, 0xd9, 0xfe, 0x02,
  0xfa, 0x04, 0xf7, 0xf1, 0x07, 0xcf, 0xdc, 0xde, 0x0b, 0xf8, 0x03, 0x35,
  0xfb, 0xe4, 0xfe, 0x06, 0xf1, 0xea, 0xfe, 0xe8, 0xf4, 0xee, 0xfb, 0x04,
  0x16, 0xe7, 0xe8, 0x05, 0x03, 0x1a, 0xd2, 0xfb, 0xff, 0xdc, 0x24, 0xfd,
  0x2e, 0xea, 0x05, 0x29, 0x00, 0xf5, 0x1d, 0x12, 0x0e, 0x0b, 0x07, 0x0f,
  0x05, 0xf9, 0xf2, 0x0b, 0x0c, 0xe9, 0x0a, 0xfe, 0x0a, 0x04, 0xff, 0x04,
  0xf6, 0x09, 0x01, 0x05, 0x08, 0x07, 0x0e, 0x14, 0xf3, 0x09, 0x09, 0x08,
  0x18, 0xf7, 0xfa, 0x0c, 0xfd, 0xdf, 0x19, 0xfa, 0x01, 0x11, 0x07, 0xfd,
  0x04, 0x09, 0x08, 0xf9, 0x0e, 0x12, 0x08, 0x23, 0x07, 0x15, 0xf8, 0x01,
  0xf3, 0xfa, 0xfc, 0xfc, 0x1c, 0x26, 0xf8, 0x0b, 0xf7, 0x02, 0x14, 0x0d,
  0xfc, 0x0a, 0x04, 0x22, 0xf6, 0x27, 0x1a, 0x00, 0xde, 0xf8, 0x19, 0x20,
  0x20, 0x07, 0xf2, 0xec, 0x03, 0x02, 0xee, 0xf9, 0x02, 0x00, 0x21, 0x03,
  0xfe, 0x20, 0xee, 0x1c, 0xf2, 0xf7, 0x09, 0x02, 0xf9, 0x0c, 0x1e, 0xf8,
  0x19, 0xef, 0xec, 0xf6, 0x01, 0x0b, 0xd7, 0x04, 0x07, 0xef, 0xef, 0x09,
  0x07, 0x10, 0xe4, 0xfd, 0x0a, 0x09, 0x0e, 0x13, 0x08, 0xf6, 0xf7, 0x09,
  0xe4, 0xf9, 0xed, 0x24, 0x00, 0x12, 0xeb, 0x12, 0x02, 0x22, 0xf6, 0x0f,
  0x0e, 0x07, 0xf7, 0x05, 0x0b, 0x0f, 0x0c, 0xf7, 0xf5, 0x14, 0x04, 0x0a,
  0x02, 0x09, 0xed, 0x08, 0x1f, 0xff, 0xfd, 0xff, 0x0b, 0x0b, 0x05, 0x15,
  0x15, 0x18, 0x11, 0x2c, 0xfa, 0xff, 0xe4, 0x12, 0x1b, 0xff, 0xf3, 0x16,
  0x00, 0xea, 0xf8, 0xfb, 0xfc, 0x03, 0x01, 0x03, 0x11, 0x12, 0x0f, 0x1a,
  0xf3, 0x05, 0xf9, 0x19, 0x16, 0x07, 0xf4, 0x1b, 0xff, 0x0a, 0x04, 0x11,
  0x00, 0x0d, 0xff, 0x00, 0x02, 0x1f, 0x0c, 0xf0, 0xe6, 0x10, 0x0c, 0x08,
  0x0c, 0x2d, 0x04, 0x11, 0x0b, 0x23, 0x08, 0x03, 0x12, 0x0f, 0xf1, 0x10,
  0x07, 0x02, 0xf2, 0xf8, 0xf1, 0x06, 0xf4, 0x05, 0xfb, 0x0a, 0xea, 0x05,
  0x0c, 0x08, 0xfa, 0x10, 0x07, 0xfa, 0x08, 0x16, 0xf5, 0x11, 0x11, 0x0d,
  0x07, 0xff, 0xfa, 0x0e, 0x04, 0x05, 0xf8, 0xfe, 0xe6, 0xe7, 0x05, 0x0b,
  0x08, 0x02, 0xf4, 0xf8, 0xec, 0xfb, 0x07, 0x0a, 0xf8, 0xef, 0x2a, 0x19,
  0x22, 0x24, 0xf5, 0x11, 0xfc, 0xfb, 0x01, 0xed, 0xf6, 0x03, 0xf7, 0x11,
  0x07, 0x0a, 0x1c, 0x19, 0x00, 0x0c, 0xed, 0x0e, 0x2a, 0x0b, 0xea, 0x04,
  0x00, 0xf6, 0xf5, 0xf5, 0x0d, 0x10, 0xfe, 0x12, 0x0e, 0xf8, 0x07, 0x12,
  0x09, 0x09, 0xfa, 0xff, 0x1f, 0x10, 0xee, 0x1c, 0x0c, 0xfb, 0xfd, 0xf3,
  0xf8, 0x15, 0x00, 0x1a, 0x01, 0x1d, 0x1a, 0x12, 0x03, 0x16, 0x18, 0x10,
  0x14, 0x16, 0x06, 0x12, 0x19, 0xf9, 0x09, 0x0f, 0xfc, 0x12, 0x10, 0x1a,
  0x0d, 0x21, 0x24, 0x11, 0xef, 0x16, 0x25, 0x2d, 0x06, 0xdd, 0xf5, 0xf8,
  0x12, 0x29, 0xf8, 0x0b, 0x12, 0xfa, 0x11, 0xf4, 0x0e, 0x17, 0x0b, 0xe3,
  0x1b, 0xfc, 0xd7, 0x20, 0xf9, 0xef, 0x0b, 0x03, 0xf2, 0x14, 0x0a, 0x00,
  0x0d, 0x0f, 0xfb, 0xe5, 0xf7, 0x07, 0xf3, 0xdf, 0x1f, 0xf3, 0xee, 0x05,
  0x12, 0xf9, 0x0d, 0xfd, 0xdc, 0xfb, 0xec, 0xea, 0xf7, 0xfa, 0x07, 0xea,
  0x14, 0xdb, 0xef, 0xe7, 0x0a, 0x0a, 0x00, 0x0a, 0x0a, 0xf4, 0xde, 0x06,
  0xf5, 0x07, 0xea, 0xe8, 0x0d, 0x0c, 0x0d, 0xf9, 0x10, 0xf4, 0xd8, 0xf7,
  0xe1, 0x07, 0xeb, 0x0d, 0x09, 0x11, 0xe2, 0xf4, 0x07, 0x16, 0xe9, 0x02,
  0x11, 0x18, 0xf8, 0xe7, 0x14, 0xe2, 0xe4, 0x05, 0x12, 0x05, 0xe1, 0x1e,
  0x07, 0x02, 0xf7, 0x0f, 0x04, 0x1d, 0xea, 0x0b, 0x0f, 0x28, 0x09, 0xf8,
  0x01, 0xec, 0xe1, 0x0a, 0x2a, 0xf4, 0xe1, 0xf9, 0x0e, 0xe7, 0xea, 0xff,
  0x10, 0x25, 0xf8, 0x0a, 0x0a, 0x14, 0x0f, 0x1c, 0x01, 0xef, 0xdf, 0x25,
  0x1b, 0xf7, 0xdf, 0xf8, 0x26, 0xf8, 0x0a, 0x07, 0xe5, 0x15, 0xf7, 0xf5,
  0xfa, 0x1a, 0xf9, 0x01, 0x0e, 0xf0, 0xe5, 0x10, 0x0e, 0x10, 0xec, 0xe7,
  0x14, 0x1d, 0xfd, 0xf5, 0x05, 0x1d, 0xec, 0xf4, 0x0a, 0x03, 0x0d, 0x20,
  0x16, 0x0d, 0xff, 0x12, 0xfa, 0x26, 0x0b, 0xfd, 0xee, 0xd6, 0xef, 0xf1,
  0x19, 0xd9, 0xe3, 0xf5, 0x01, 0x03, 0x12, 0xf9, 0xf4, 0x00, 0x10, 0xfe,
  0x06, 0xf3, 0xca, 0xe8, 0x08, 0xe9, 0xc3, 0xf0, 0xdb, 0xec, 0xd1, 0xd7,
  0xe9, 0xf7, 0xfc, 0x2f, 0xe4, 0x07, 0x05, 0x21, 0x0a, 0xee, 0xf3, 0xbb,
  0x0c, 0x02, 0xe0, 0xfc, 0xea, 0xe0, 0xfa, 0xee, 0xfe, 0x06, 0xda, 0xf7,
  0xe2, 0x06, 0x17, 0xfd, 0xe1, 0xf6, 0x09, 0xde, 0x16, 0xfe, 0x0e, 0xfe,
  0xff, 0xf1, 0xfb, 0xf2, 0x11, 0x01, 0x08, 0x0e, 0x0b, 0x06, 0x16, 0xdd,
  0x19, 0x1c, 0xdf, 0x10, 0xfd, 0xe4, 0xf5, 0x12, 0x37, 0xf7, 0xf9, 0xfb,
  0x1a, 0x07, 0xf9, 0x14, 0x0a, 0x2b, 0x1b, 0x15, 0xec, 0x10, 0x0f, 0xd3,
  0x05, 0x0e, 0x0e, 0xf7, 0xeb, 0xda, 0x08, 0xfd, 0xfa, 0x13, 0x13, 0x04,
  0xf9, 0x06, 0x0b, 0xfb, 0x02, 0x06, 0x14, 0xe9, 0x0f, 0xf7, 0xea, 0xfe,
  0xd6, 0xf9, 0x14, 0x09, 0x15, 0x12, 0x07, 0x06, 0xff, 0x10, 0x13, 0xdd,
  0x08, 0x23, 0xe2, 0x03, 0x13, 0xfa, 0x10, 0xfd, 0xd9, 0xe6, 0x11, 0x09,
  0xfc, 0x13, 0x05, 0xfc, 0x13, 0x0d, 0x02, 0xc8, 0x0a, 0x22, 0xec, 0xeb,
  0x15, 0xe3, 0xf8, 0xf8, 0xcb, 0xfc, 0xfd, 0xf3, 0x0e, 0x09, 0xfe, 0x04,
  0x07, 0x05, 0x03, 0xc6, 0x04, 0x0e, 0xe9, 0xfc, 0x0b, 0xfd, 0x07, 0xff,
  0xe7, 0xf7, 0x0f, 0xfa, 0x15, 0x14, 0x10, 0x01, 0x08, 0x00, 0x08, 0xdf,
  0x09, 0x1d, 0x03, 0x0f, 0x10, 0xfe, 0x0b, 0xf0, 0x18, 0xed, 0x1a, 0x0e,
  0x0f, 0x18, 0x0a, 0x11, 0x17, 0x13, 0xf9, 0xe9, 0x1f, 0x0c, 0x09, 0x1a,
  0x18, 0xeb, 0x02, 0xfb, 0x16, 0xfb, 0x06, 0xf5, 0x18, 0x12, 0x0a, 0x11,
  0x11, 0x09, 0xf6, 0xf9, 0xf8, 0x10, 0xef, 0x0e, 0x19, 0xf1, 0xee, 0x06,
  0x15, 0x0c, 0xf3, 0xec, 0x1a, 0x04, 0x0d, 0x18, 0x0d, 0xff, 0x09, 0xfd,
  0xff, 0x12, 0xe8, 0x02, 0x0f, 0xf4, 0xec, 0x07, 0x0a, 0xf2, 0xe8, 0xe7,
  0x07, 0x16, 0x06, 0x1d, 0x12, 0x0f, 0x13, 0x08, 0xf5, 0x12, 0xff, 0x07,
  0x18, 0xf4, 0x0c, 0xfe, 0x08, 0xe8, 0xe2, 0xf8, 0xfe, 0x0f, 0x00, 0x06,
  0x08, 0x16, 0x1d, 0x1b, 0xef, 0x02, 0xf8, 0x0f, 0x13, 0x0b, 0xc8, 0xf6,
  0x0b, 0x0f, 0xe9, 0xd9, 0x02, 0x0e, 0x12, 0xff, 0x0b, 0x1d, 0x14, 0xfa,
  0xdc, 0x07, 0xe5, 0x16, 0x08, 0xfd, 0xdd, 0xf0, 0xf7, 0xf9, 0x06, 0x15,
  0x04, 0xfd, 0x09, 0xfc, 0xfa, 0x0c, 0x03, 0xf1, 0xf5, 0xfb, 0xfe, 0x1c,
  0xec, 0xfe, 0x05, 0x05, 0x03, 0x00, 0x07, 0xf2, 0x09, 0x04, 0xfb, 0xf1,
  0x07, 0x02, 0xfd, 0xf1, 0xf1, 0x00, 0xf8, 0x16, 0xf7, 0xfc, 0x01, 0x06,
  0x0b, 0x0b, 0x03, 0x01, 0xfb, 0xde, 0xfa, 0xfd, 0x15, 0xf1, 0xfa, 0xfd,
  0xeb, 0xfe, 0x06, 0x15, 0xf9, 0xea, 0x0d, 0xed, 0x16, 0x23, 0x11, 0x04,
  0xe9, 0x00, 0xfa, 0x08, 0x03, 0xf6, 0xf6, 0x07, 0x14, 0xf4, 0x00, 0x14,
  0x0a, 0xf5, 0x14, 0x0d, 0xfd, 0x11, 0xff, 0x15, 0xf6, 0x08, 0xeb, 0xec,
  0xf1, 0x02, 0xee, 0xef, 0x29, 0xfb, 0x0c, 0x25, 0x0a, 0xf6, 0x4c, 0xf6,
  0xe7, 0x05, 0x2e, 0x27, 0xf3, 0x18, 0xfa, 0x09, 0xfb, 0x05, 0xf3, 0x02,
  0x53, 0xea, 0x0e, 0x00, 0xfe, 0xef, 0x28, 0x04, 0x12, 0x07, 0xf6, 0xed,
  0x10, 0x17, 0x25, 0x01, 0x30, 0x00, 0xfd, 0xfd, 0x09, 0x1a, 0x17, 0xdc,
  0x00, 0x07, 0xe0, 0xfc, 0x3b, 0x22, 0xe2, 0xea, 0x26, 0x04, 0x22, 0x03,
  0x33, 0x04, 0xfc, 0x0e, 0xe7, 0x24, 0xe9, 0xf8, 0xf7, 0x0d, 0xf3, 0x10,
  0x29, 0x08, 0xdf, 0xf2, 0xf9, 0xf6, 0x13, 0x18, 0x07, 0x02, 0xfd, 0x05,
  0xeb, 0xfa, 0x04, 0xe8, 0xfa, 0xed, 0xd7, 0xf4, 0x14, 0x1f, 0xc6, 0xd1,
  0xfd, 0xd3, 0x04, 0xf4, 0xe9, 0x13, 0x0e, 0xfb, 0xda, 0xe6, 0xc8, 0xf8,
  0x0a, 0x14, 0xd9, 0xff, 0xe1, 0x09, 0xef, 0xf0, 0xd6, 0xeb, 0xf2, 0xef,
  0xe6, 0x08, 0x04, 0xd1, 0xfd, 0xe6, 0xcb, 0xd7, 0xfa, 0xf1, 0x00, 0xfb,
  0xf6, 0xe7, 0xe4, 0xf8, 0xfc, 0xe7, 0xe0, 0xf0, 0xf2, 0x0d, 0xff, 0xeb,
  0xf2, 0xfb, 0x03, 0xff, 0xed, 0xe9, 0xf2, 0x08, 0x0a, 0xaa, 0xf8, 0x0c,
  0xe2, 0xde, 0x00, 0xff, 0x06, 0x15, 0x10, 0x17, 0xf7, 0x10, 0xfb, 0x25,
  0x04, 0xe7, 0x03, 0x05, 0x1d, 0x1b, 0x18, 0x0b, 0x09, 0x1a, 0xfe, 0xf5,
  0x0e, 0xff, 0x00, 0xfd, 0x0c, 0x08, 0xfe, 0x04, 0x0f, 0x06, 0x08, 0x11,
  0x09, 0x02, 0x00, 0xf4, 0x11, 0xfd, 0x1d, 0x09, 0x03, 0xfb, 0x01, 0xf6,
  0x04, 0x03, 0xe5, 0xcf, 0x12, 0xfd, 0xf1, 0x05, 0xfe, 0xdd, 0xec, 0xf0,
  0xef, 0xf5, 0x02, 0xfd, 0x09, 0xfe, 0x01, 0xf8, 0xe0, 0xfd, 0x11, 0x1a,
  0xf5, 0xf7, 0x04, 0xf4, 0x07, 0xf6, 0xea, 0x25, 0xe4, 0xf8, 0xf6, 0x05,
  0xf3, 0x0b, 0x0b, 0x1d, 0xff, 0xf7, 0x1e, 0xf0, 0x11, 0x17, 0x10, 0x06,
  0xf6, 0xee, 0x00, 0x03, 0xeb, 0x06, 0xd2, 0xe9, 0x02, 0xfe, 0x08, 0xde,
  0x0b, 0x02, 0xd9, 0x00, 0x06, 0x0b, 0x05, 0xfd, 0x03, 0x0e, 0xf2, 0x04,
  0x05, 0x13, 0x03, 0x0b, 0x16, 0x08, 0xff, 0xf9, 0x02, 0x15, 0x13, 0x23,
  0x07, 0x05, 0xf2, 0xf3, 0x26, 0x01, 0x03, 0x11, 0x07, 0xec, 0x03, 0x11,
  0xed, 0x07, 0xfb, 0x20, 0xf7, 0xff, 0x0c, 0x2d, 0x00, 0xee, 0x0e, 0xfd,
  0xf7, 0x07, 0x08, 0x0f, 0xec, 0x05, 0xfd, 0xff, 0xfa, 0xf8, 0x02, 0xee,
  0x15, 0xf2, 0x0b, 0x3d, 0x0e, 0x0c, 0x1b, 0x03, 0x00, 0x18, 0x24, 0x20,
  0xf6, 0x18, 0xf4, 0x04, 0xf7, 0x06, 0x01, 0xeb, 0x14, 0x06, 0x1d, 0x07,
  0x09, 0x0b, 0x14, 0x0e, 0x09, 0x23, 0x0c, 0xff, 0x11, 0x09, 0x0e, 0x03,
  0x0e, 0x0b, 0xfc, 0x04, 0x11, 0x08, 0xf1, 0x0c, 0xf9, 0x02, 0xf3, 0x1c,
  0xe1, 0x1e, 0x00, 0x0d, 0x0c, 0x09, 0x06, 0xe0, 0x04, 0xf1, 0xef, 0xd0,
  0xff, 0xfc, 0xf3, 0x16, 0x0f, 0x01, 0x0c, 0x02, 0xe6, 0x0f, 0x10, 0x22,
  0x01, 0x0d, 0xf9, 0xed, 0x02, 0xe1, 0xea, 0xcf, 0x11, 0x17, 0x16, 0x3d,
  0x0f, 0xf7, 0x0c, 0x06, 0x18, 0x04, 0x05, 0x0c, 0xfd, 0x11, 0x0c, 0x07,
  0x1c, 0xf6, 0xea, 0x06, 0x12, 0x05, 0x10, 0x09, 0xfc, 0xcf, 0xfd, 0xf0,
  0x0d, 0xef, 0xdb, 0xee, 0x01, 0x08, 0x13, 0x09, 0x18, 0x01, 0x12, 0x13,
  0x02, 0x11, 0xf0, 0xea, 0x0a, 0xf6, 0xdf, 0x0c, 0xf3, 0x09, 0xf0, 0xe4,
  0x0c, 0x13, 0xfd, 0xf7, 0x0a, 0x1c, 0xf8, 0xf0, 0xea, 0x11, 0x0d, 0xd4,
  0x16, 0x29, 0x0b, 0x07, 0xfc, 0x12, 0x03, 0xf2, 0x19, 0x02, 0x0b, 0x00,
  0x0f, 0xfd, 0xfe, 0x00, 0xeb, 0x07, 0x15, 0xfa, 0xff, 0x20, 0x0f, 0x06,
  0xf8, 0x09, 0xfd, 0x1b, 0x0f, 0x03, 0x0d, 0x0b, 0x04, 0xef, 0xf3, 0x02,
  0x05, 0x13, 0x15, 0xff, 0x06, 0x0d, 0x04, 0xf3, 0x15, 0xfa, 0x02, 0x06,
  0x0c, 0x04, 0x05, 0x14, 0x10, 0xfd, 0x0c, 0x0d, 0xf7, 0xff, 0x10, 0xfd,
  0x0e, 0xe6, 0xfb, 0x00, 0x1a, 0x0b, 0xf2, 0xe0, 0x04, 0x08, 0xf3, 0x14,
  0xff, 0x02, 0x0e, 0x17, 0xf1, 0x0f, 0xf4, 0xf0, 0x10, 0xe4, 0x01, 0x1c,
  0xff, 0x13, 0xf9, 0xfb, 0x07, 0x0a, 0x07, 0xf6, 0xf5, 0x07, 0x09, 0x01,
  0xef, 0xfd, 0xf8, 0x0d, 0xf7, 0xfa, 0x04, 0x14, 0xff, 0xf8, 0xfa, 0xfa,
  0xee, 0xf3, 0xef, 0xf5, 0xf4, 0x1d, 0x28, 0x08, 0x10, 0xe9, 0x0d, 0xf2,
  0xf2, 0xfb, 0x11, 0x01, 0xfe, 0xf1, 0x04, 0x09, 0xff, 0xe7, 0xfa, 0xfc,
  0xff, 0x26, 0x1f, 0x15, 0xf4, 0x08, 0x12, 0x06, 0xf5, 0x0a, 0xfd, 0x12,
  0xc3, 0xfa, 0x2d, 0x13, 0xd8, 0xd9, 0xed, 0xc5, 0xf3, 0xf2, 0xf9, 0xac,
  0xf1, 0x02, 0xeb, 0x19, 0xe2, 0x1a, 0x05, 0x14, 0xcb, 0x05, 0x07, 0x0b,
  0xe2, 0xdb, 0xf5, 0xe2, 0xeb, 0xe8, 0xee, 0xb9, 0x1c, 0xef, 0xeb, 0x05,
  0xe4, 0xf6, 0xf8, 0x12, 0xe3, 0xe0, 0xd3, 0xd7, 0xf6, 0xee, 0xef, 0xe2,
  0xed, 0x07, 0xfc, 0xf6, 0x08, 0xc6, 0xd9, 0xfc, 0xdc, 0xfb, 0xee, 0x11,
  0xeb, 0xde, 0xf0, 0xfa, 0xff, 0xdf, 0xf9, 0xfb, 0x03, 0xf4, 0xfe, 0x14,
  0xdb, 0xf6, 0x1e, 0x14, 0xe6, 0x19, 0x1b, 0x17, 0x19, 0x19, 0x19, 0x38,
  0xf6, 0xfe, 0xf3, 0xf2, 0xff, 0xf0, 0xec, 0x0b, 0x0c, 0xf7, 0x2b, 0x0f,
  0xf2, 0x15, 0x0c, 0x04, 0x0f, 0x14, 0x18, 0x10, 0x22, 0x09, 0x04, 0x02,
  0x04, 0xf2, 0xf4, 0x22, 0xfe, 0xe6, 0x2b, 0x18, 0x0c, 0xd5, 0xf6, 0x04,
  0x28, 0xe9, 0x13, 0x16, 0x05, 0x14, 0x09, 0x22, 0x0f, 0xed, 0x0b, 0x2f,
  0xf8, 0xf9, 0x1f, 0xfd, 0x27, 0xd8, 0x06, 0x09, 0x04, 0xe4, 0x11, 0xe1,
  0xe6, 0x2a, 0x1f, 0x17, 0x14, 0x20, 0x2a, 0x03, 0x08, 0x2d, 0xd1, 0xd1,
  0x10, 0x07, 0xf5, 0x05, 0xfc, 0x03, 0xea, 0x08, 0x1a, 0x0a, 0x10, 0x02,
  0x0f, 0x0e, 0x18, 0xe2, 0xeb, 0x0d, 0x11, 0xfc, 0x05, 0xf9, 0x07, 0x17,
  0xf9, 0xf6, 0x0c, 0x15, 0xfc, 0xf7, 0x02, 0xfe, 0x04, 0x09, 0x06, 0xf1,
  0xf9, 0xf2, 0xfe, 0xe6, 0x00, 0xee, 0x17, 0xfc, 0x00, 0x0d, 0x08, 0xf2,
  0xf9, 0xf7, 0xf8, 0xff, 0x0c, 0xf9, 0xf0, 0xee, 0x29, 0x0a, 0x04, 0x01,
  0xeb, 0xe9, 0xd5, 0x01, 0x0c, 0x13, 0xfb, 0x17, 0x03, 0xfe, 0x11, 0x0f,
  0x0d, 0x05, 0xf6, 0x17, 0xfb, 0xfe, 0xe8, 0x0f, 0xfe, 0xf0, 0x12, 0x12,
  0x12, 0x18, 0x0c, 0xfa, 0xf7, 0x24, 0x0f, 0x01, 0x03, 0x0f, 0x13, 0x1d,
  0x1b, 0x09, 0xff, 0xd0, 0xfc, 0x01, 0x2b, 0x0b, 0x04, 0x22, 0x32, 0x26,
  0x10, 0xff, 0xfd, 0x02, 0xe8, 0x08, 0xf0, 0x07, 0x24, 0xf4, 0x1b, 0x07,
  0x10, 0xf3, 0x25, 0x10, 0xe8, 0xe2, 0x16, 0xf8, 0xe0, 0x1b, 0x12, 0x0f,
  0x02, 0xf9, 0x0c, 0xfc, 0x2a, 0xf8, 0x05, 0xf3, 0x12, 0x03, 0xea, 0x15,
  0x11, 0xfa, 0xf8, 0xdf, 0x11, 0x27, 0x17, 0x13, 0x1e, 0x0e, 0x02, 0x01,
  0xf8, 0x1c, 0x03, 0xfa, 0x11, 0x08, 0xee, 0x16, 0xf3, 0xee, 0xe2, 0xf0,
  0x0f, 0x02, 0x05, 0x1e, 0x1c, 0x0a, 0xff, 0xfb, 0xe8, 0x0a, 0xf2, 0x10,
  0x14, 0xf4, 0xf9, 0x24, 0xfd, 0xf4, 0x06, 0x07, 0xf3, 0x12, 0x07, 0x0e,
  0x05, 0x0b, 0x16, 0xf4, 0xf0, 0x13, 0x19, 0x0a, 0x1a, 0x0c, 0xf2, 0x0e,
  0xfc, 0xef, 0x05, 0xfb, 0x10, 0x15, 0x0b, 0xff, 0xff, 0x13, 0x17, 0xee,
  0xfd, 0x12, 0x02, 0x08, 0x0f, 0x21, 0x02, 0x0a, 0xf6, 0x0c, 0xfb, 0xf3,
  0x03, 0xfc, 0x04, 0xf9, 0xf9, 0x0b, 0xfa, 0xec, 0x09, 0x09, 0x01, 0x1d,
  0x1b, 0x0c, 0xe5, 0x19, 0xde, 0xf7, 0x00, 0xfe, 0xea, 0xff, 0x04, 0x0c,
  0x0f, 0xf6, 0x06, 0xd6, 0xf0, 0x09, 0xdd, 0x41, 0x30, 0xdf, 0xd8, 0xfb,
  0xf9, 0xe3, 0xea, 0xf3, 0x00, 0x0c, 0x01, 0x0e, 0xfd, 0x0c, 0x1f, 0x00,
  0xfc, 0x11, 0xfb, 0x36, 0x22, 0xed, 0xdc, 0x17, 0x00, 0xf2, 0xf2, 0xf2,
  0x10, 0x14, 0x03, 0xf9, 0xfc, 0x28, 0x21, 0x05, 0x04, 0x04, 0xee, 0xfb,
  0x10, 0x0c, 0x19, 0x04, 0xfe, 0xfb, 0xfb, 0x02, 0x0a, 0x13, 0x09, 0xf5,
  0x0e, 0x14, 0x18, 0xe7, 0xf0, 0x07, 0xef, 0xf3, 0x11, 0xff, 0xe4, 0x03,
  0x10, 0x01, 0xf7, 0xf8, 0x04, 0x05, 0x00, 0x02, 0x08, 0x06, 0xf9, 0x0f,
  0xd6, 0x02, 0xf6, 0xed, 0x04, 0x19, 0xea, 0x19, 0x13, 0x04, 0x06, 0x06,
  0x01, 0x12, 0x10, 0x12, 0x0a, 0xe5, 0xfa, 0x1d, 0xe0, 0x0b, 0x05, 0x13,
  0xf8, 0x15, 0xf2, 0x12, 0x0a, 0x12, 0x08, 0x18, 0x00, 0x02, 0xef, 0x0a,
  0xe0, 0xec, 0xfc, 0x14, 0x06, 0xf9, 0x0f, 0x28, 0x07, 0x1c, 0x06, 0x02,
  0xe6, 0x0e, 0x02, 0x0b, 0xec, 0x0a, 0xea, 0xf1, 0xef, 0xf0, 0xf5, 0xe1,
  0x20, 0xef, 0xe6, 0x0e, 0x17, 0x11, 0xf1, 0x1a, 0xcf, 0x04, 0xee, 0xf2,
  0xf6, 0x0d, 0xea, 0xd7, 0xe9, 0xef, 0xe7, 0xdd, 0x15, 0xeb, 0xf7, 0xfc,
  0x16, 0x15, 0xf2, 0x1f, 0xee, 0x1f, 0xfb, 0xf5, 0x1a, 0x1c, 0x04, 0xec,
  0x01, 0xf1, 0xd9, 0xf2, 0x03, 0xef, 0xec, 0x09, 0xef, 0xdd, 0x00, 0x15,
  0xb9, 0xc9, 0xf2, 0xef, 0xb8, 0xd6, 0xf1, 0xd7, 0xeb, 0xcd, 0xe9, 0xea,
  0x1a, 0xd0, 0xf1, 0x2d, 0xf7, 0x10, 0x04, 0x19, 0xd4, 0xfe, 0x01, 0x1b,
  0xee, 0xef, 0xf1, 0xe7, 0xf2, 0xed, 0xd9, 0xe6, 0xfb, 0xe4, 0x15, 0x15,
  0xee, 0x04, 0x21, 0x0f, 0x06, 0xf5, 0x1d, 0x11, 0xfa, 0x0c, 0xf9, 0xd2,
  0x08, 0xf0, 0xe6, 0x07, 0x28, 0xea, 0x06, 0x04, 0xf5, 0xf6, 0x15, 0x03,
  0x0c, 0xe2, 0xea, 0xea, 0x08, 0x17, 0x12, 0xeb, 0x0f, 0xe4, 0xfd, 0x12,
  0xf0, 0x03, 0x1b, 0xe1, 0xcb, 0xf8, 0xda, 0xfa, 0x2d, 0x01, 0xfa, 0xf7,
  0xff, 0xfa, 0x12, 0xfe, 0x0c, 0xf5, 0xfe, 0x13, 0xd8, 0x14, 0xf9, 0x0c,
  0xd6, 0x01, 0xf0, 0xfd, 0x0c, 0x20, 0xff, 0x0f, 0x11, 0xef, 0xfa, 0x00,
  0xfc, 0x09, 0xf4, 0xef, 0x17, 0xf1, 0x0b, 0x04, 0x04, 0x11, 0x0a, 0x07,
  0xf3, 0x19, 0x0d, 0x13, 0xe2, 0xd0, 0xee, 0xd7, 0xed, 0x08, 0xf7, 0xc5,
  0x0c, 0xdb, 0x17, 0x1a, 0xeb, 0xf5, 0xe1, 0x13, 0x21, 0xcb, 0xee, 0xf1,
  0xc4, 0xf0, 0xea, 0xf2, 0x0d, 0xe8, 0xff, 0x0b, 0xe9, 0xea, 0xec, 0x24,
  0xfa, 0x98, 0xf3, 0x14, 0xf3, 0xbd, 0x08, 0x0b, 0x17, 0xf2, 0xef, 0xf4,
  0xe3, 0xe7, 0x03, 0x0d, 0x09, 0xe7, 0x10, 0x0a, 0x05, 0x19, 0x05, 0x1d,
  0x0e, 0xe1, 0x00, 0x0f, 0xfe, 0x0b, 0x17, 0x0a, 0x01, 0x02, 0x1e, 0x0e,
  0x08, 0x07, 0xfb, 0xe9, 0x18, 0x02, 0x08, 0xf8, 0xfa, 0xe3, 0x00, 0xf3,
  0xfa, 0x12, 0x09, 0x17, 0x07, 0x12, 0x14, 0x05, 0xed, 0x0b, 0x03, 0x13,
  0x05, 0xf0, 0xfd, 0x0c, 0x0e, 0xf6, 0xd4, 0x05, 0xfa, 0x06, 0xfb, 0x11,
  0x00, 0x06, 0x1b, 0x12, 0x04, 0x12, 0x2c, 0x0e, 0xff, 0x34, 0xd7, 0xf7,
  0x0c, 0xfe, 0xed, 0x19, 0x15, 0x04, 0xff, 0x06, 0x05, 0x11, 0x13, 0x28,
  0xf0, 0x00, 0xe8, 0xde, 0x1b, 0x17, 0xf2, 0xf7, 0xf6, 0x1f, 0xf5, 0xef,
  0x07, 0x10, 0x02, 0x02, 0x35, 0xfb, 0x08, 0xd6, 0x13, 0x03, 0x01, 0x18,
  0x07, 0xf3, 0xfb, 0x00, 0x23, 0x1e, 0xfa, 0x0b, 0x09, 0xe5, 0xe6, 0xfe,
  0xe7, 0x04, 0xf0, 0x0e, 0x18, 0xf2, 0xed, 0x34, 0xee, 0xde, 0x12, 0x04,
  0xd1, 0xe3, 0xf2, 0xfd, 0xc5, 0xe3, 0xfd, 0xf8, 0xee, 0xf7, 0xf0, 0xd7,
  0x1c, 0xf2, 0xec, 0x20, 0x05, 0xbd, 0xe7, 0x01, 0xf1, 0xeb, 0xf2, 0xea,
  0xea, 0x09, 0x02, 0x12, 0x03, 0xff, 0xfb, 0x02, 0x0d, 0x07, 0xef, 0x00,
  0x0f, 0xd5, 0xf5, 0x00, 0xeb, 0xe0, 0xe7, 0xde, 0xf6, 0x0b, 0x09, 0xfa,
  0x01, 0x07, 0x10, 0xe2, 0xf4, 0x0c, 0xf2, 0xec, 0x03, 0x03, 0xec, 0x21,
  0x03, 0x0a, 0xed, 0xeb, 0x15, 0xfd, 0xfc, 0xf3, 0x02, 0x0a, 0xff, 0xe9,
  0xe8, 0x00, 0x0e, 0xed, 0xfc, 0x10, 0xe6, 0x1b, 0x0e, 0x09, 0x02, 0xf8,
  0xf3, 0xf0, 0x16, 0x00, 0xfe, 0x0a, 0x09, 0xe1, 0xe7, 0x06, 0x04, 0xf5,
  0xe8, 0x03, 0xf9, 0x03, 0xe9, 0xf4, 0xea, 0xe4, 0xf4, 0xe5, 0xee, 0xf3,
  0xee, 0x06, 0x15, 0xde, 0xee, 0xf4, 0xe3, 0x03, 0x00, 0xf2, 0xe9, 0x05,
  0xcf, 0x01, 0xe6, 0xf2, 0xec, 0xdd, 0xf1, 0x06, 0xdf, 0x05, 0x0a, 0xd1,
  0xf4, 0xde, 0xfd, 0x1a, 0xfd, 0xfa, 0xf4, 0x1e, 0xd0, 0x07, 0xff, 0x03,
  0xf9, 0x0b, 0xf1, 0xfc, 0xdd, 0x13, 0x16, 0xd5, 0x1d, 0xe6, 0x17, 0x17,
  0x17, 0x20, 0x1a, 0x11, 0xd4, 0x12, 0x16, 0x0e, 0xff, 0x09, 0xfa, 0xe7,
  0xfe, 0x1c, 0xfa, 0xed, 0x0a, 0xf3, 0x10, 0x06, 0x11, 0x0e, 0x02, 0x02,
  0xe7, 0x05, 0x06, 0xfa, 0x1a, 0x0b, 0x06, 0xf1, 0x01, 0xf7, 0xe2, 0xec,
  0xf9, 0x10, 0x0b, 0xec, 0xf8, 0x1f, 0x00, 0x07, 0xf2, 0x0f, 0xf9, 0x10,
  0x0e, 0x18, 0x0c, 0xed, 0x0a, 0xdd, 0xc8, 0xf8, 0x08, 0x0b, 0xff, 0xee,
  0x0c, 0x07, 0xf9, 0x0c, 0xf1, 0x0c, 0x08, 0x06, 0x10, 0x0d, 0xf9, 0x09,
  0x0d, 0xc3, 0xb4, 0x04, 0xfd, 0xf9, 0xf8, 0xf5, 0xf7, 0xf0, 0x05, 0x01,
  0xf8, 0x02, 0xfe, 0xef, 0x0b, 0x07, 0x00, 0xf0, 0x05, 0xbf, 0xd1, 0x11,
  0x0a, 0xf2, 0xeb, 0x0c, 0xf4, 0xe2, 0x10, 0x0c, 0xf1, 0xfa, 0x11, 0x06,
  0x14, 0x09, 0xf2, 0x06, 0xf8, 0xe1, 0xee, 0x03, 0xff, 0xf7, 0xfb, 0xf5,
  0x07, 0xf0, 0x0c, 0xfd, 0x18, 0xf2, 0x10, 0xfc, 0x10, 0x06, 0x0e, 0x1f,
  0x0f, 0xee, 0xf6, 0x0f, 0xfb, 0x0f, 0x0c, 0xf8, 0xe2, 0xf8, 0xc3, 0x11,
  0x0d, 0x0b, 0xb6, 0xd8, 0x02, 0xda, 0xf2, 0xe6, 0x02, 0xd5, 0xea, 0x1a,
  0xd0, 0xda, 0xfb, 0xfe, 0x02, 0xe0, 0xda, 0x13, 0xf3, 0xf3, 0xe2, 0x01,
  0xda, 0xd9, 0xd8, 0xfb, 0xe0, 0xde, 0xfe, 0x06, 0xf3, 0xd4, 0xe1, 0x19,
  0xf8, 0xf4, 0x04, 0xf9, 0xc7, 0xf6, 0x07, 0xf7, 0xd9, 0xf7, 0xe7, 0xf6,
  0xd2, 0x08, 0x03, 0xed, 0x0a, 0xd8, 0x01, 0x1a, 0xf9, 0x01, 0x0b, 0xfa,
  0xc2, 0xd8, 0x16, 0x00, 0xec, 0x06, 0xf1, 0xf1, 0xf1, 0x20, 0x0b, 0xf0,
  0x22, 0xf5, 0xf7, 0x0e, 0x05, 0xfc, 0x16, 0x17, 0x0e, 0xd8, 0x27, 0x03,
  0xfe, 0x11, 0x13, 0x07, 0x0e, 0xfd, 0x0d, 0x19, 0xfe, 0x0c, 0x24, 0xec,
  0xf8, 0xc6, 0x0b, 0xfc, 0x19, 0xea, 0x03, 0xfe, 0x2a, 0x00, 0x14, 0x0e,
  0x12, 0x0b, 0x05, 0x16, 0xcd, 0x22, 0x01, 0x10, 0xd4, 0x04, 0x06, 0xf6,
  0xfa, 0x1a, 0x0f, 0xf8, 0x10, 0x06, 0x02, 0x02, 0x09, 0x09, 0x02, 0xd9,
  0x00, 0x01, 0xf9, 0x03, 0xff, 0x0f, 0xfb, 0x03, 0xea, 0x17, 0x08, 0x01,
  0xea, 0xf7, 0xfa, 0xff, 0x0c, 0xf2, 0xed, 0xef, 0xf8, 0xfb, 0xf5, 0xfb,
  0xfb, 0xe8, 0xf8, 0xf6, 0xf8, 0xda, 0xf7, 0xf6, 0x0c, 0xf4, 0x0b, 0x03,
  0xdd, 0xf2, 0x03, 0x09, 0x02, 0xeb, 0x15, 0xf4, 0x15, 0xe6, 0xfa, 0xf0,
  0xf1, 0xd3, 0x05, 0x01, 0xf6, 0x00, 0xf4, 0x0e, 0xf9, 0x07, 0xfd, 0x15,
  0x00, 0x07, 0x16, 0xf4, 0x10, 0xdd, 0xf7, 0xf1, 0x0b, 0x2c, 0xef, 0xfa,
  0x03, 0x0c, 0xfe, 0xfa, 0x0d, 0x0d, 0x1d, 0x08, 0x18, 0x0d, 0xe1, 0xd5,
  0x17, 0x10, 0xf5, 0x0a, 0x06, 0x23, 0xf1, 0x02, 0x1a, 0x05, 0xf8, 0xf7,
  0xfd, 0x0c, 0xe8, 0xe8, 0xf6, 0x0b, 0x04, 0xe0, 0x03, 0xe4, 0xca, 0xf8,
  0xef, 0x00, 0xed, 0x0a, 0xf5, 0xf3, 0x10, 0x05, 0xe6, 0xe8, 0xf7, 0x17,
  0xda, 0x01, 0xf7, 0x15, 0x0d, 0xfb, 0xe8, 0x03, 0x08, 0x1a, 0x01, 0x0a,
  0x0f, 0x16, 0x04, 0x04, 0xef, 0x0c, 0x01, 0xf6, 0xfb, 0x09, 0x17, 0xf5,
  0xf9, 0x27, 0x0c, 0xf9, 0xef, 0x23, 0x27, 0x1e, 0x07, 0x0b, 0xfc, 0x01,
  0x09, 0xed, 0xfa, 0xe9, 0x18, 0xf2, 0x07, 0xc3, 0xfe, 0x07, 0xf6, 0x0a,
  0xfc, 0x0f, 0xfc, 0xe7, 0xfe, 0xfa, 0x06, 0x06, 0xfe, 0xfd, 0xf8, 0xef,
  0xe6, 0x00, 0xe7, 0xe8, 0xf4, 0xe2, 0xe8, 0x03, 0x04, 0x08, 0xe6, 0xf0,
  0x04, 0xf0, 0x05, 0x08, 0xf8, 0x0a, 0x07, 0x0b, 0xeb, 0xff, 0xf0, 0xfd,
  0x04, 0xe7, 0xeb, 0xfc, 0x21, 0xf4, 0xe9, 0xe5, 0x01, 0xed, 0x08, 0x0c,
  0xf3, 0x0e, 0x07, 0x22, 0xea, 0x03, 0xfb, 0x15, 0x0d, 0xea, 0xfd, 0xeb,
  0xfd, 0xf1, 0xf9, 0x00, 0xfa, 0x00, 0xf1, 0x0e, 0xea, 0x0d, 0x0b, 0x0e,
  0x09, 0x04, 0x0c, 0xe3, 0x00, 0xfb, 0x01, 0x0a, 0xe8, 0x01, 0xff, 0xf8,
  0x00, 0x08, 0xec, 0xfb, 0xee, 0x05, 0x00, 0x0c, 0x00, 0xe4, 0xf1, 0xca,
  0xf4, 0x06, 0xff, 0x0a, 0xc3, 0xff, 0xf8, 0xf8, 0xfb, 0x0a, 0x05, 0xf7,
  0xf6, 0x03, 0xfb, 0xcf, 0x03, 0xf9, 0x06, 0xa9, 0xea, 0xfe, 0xf6, 0xfa,
  0xd7, 0xee, 0xf9, 0xe6, 0xf8, 0x02, 0xfd, 0xf7, 0xf9, 0x0c, 0xff, 0xfa,
  0xff, 0xf9, 0x06, 0xc0, 0xfd, 0x0d, 0x08, 0xf8, 0xf6, 0xf6, 0x0d, 0x05,
  0x02, 0x0e, 0x05, 0xfb, 0x06, 0xdb, 0xe1, 0xf3, 0xe6, 0xff, 0xfc, 0xe6,
  0x04, 0xe3, 0xf4, 0x01, 0x03, 0xfa, 0x04, 0xe8, 0x05, 0x01, 0x13, 0x0c,
  0x04, 0xfd, 0x0a, 0xf6, 0xf1, 0x10, 0xda, 0xf0, 0x07, 0xee, 0xdf, 0xfa,
  0x19, 0x03, 0xe0, 0xc8, 0x0e, 0x12, 0xfd, 0x0d, 0x0b, 0x06, 0x08, 0x10,
  0xc4, 0x04, 0xea, 0x00, 0xf0, 0xfd, 0xeb, 0x0e, 0x07, 0xf5, 0x07, 0x10,
  0xff, 0xf9, 0xf4, 0x0e, 0xf6, 0x08, 0x0f, 0x0d, 0x09, 0xf7, 0xfe, 0x1b,
  0xff, 0xee, 0x0b, 0xfe, 0xe5, 0xe4, 0x07, 0x10, 0xf4, 0x0d, 0x05, 0x01,
  0xf4, 0x1b, 0x19, 0xfb, 0x0f, 0x07, 0xf9, 0x13, 0xeb, 0xf6, 0x02, 0xfd,
  0x02, 0xe2, 0xf6, 0x05, 0xfa, 0x01, 0x1d, 0x15, 0x01, 0x27, 0x1b, 0xf1,
  0xf8, 0x03, 0xfc, 0x06, 0xe7, 0x01, 0x06, 0xf2, 0x04, 0x12, 0x15, 0x09,
  0x08, 0xf3, 0x12, 0x1a, 0xf1, 0x0a, 0xf8, 0xf9, 0x09, 0xf3, 0x05, 0x1e,
  0x0e, 0xf1, 0x1a, 0x12, 0xf5, 0xf3, 0x33, 0x36, 0x00, 0x12, 0xfe, 0x04,
  0xf8, 0xfa, 0xf2, 0xf7, 0x26, 0x02, 0x0b, 0xf3, 0xfa, 0xf5, 0x03, 0x0a,
  0xf2, 0x08, 0xfe, 0x01, 0xff, 0xf3, 0x03, 0x05, 0xf9, 0xf7, 0xfb, 0xfc,
  0x04, 0x04, 0xf8, 0x08, 0xf3, 0xf7, 0x05, 0xfd, 0xf7, 0x06, 0xff, 0x04,
  0x03, 0xf4, 0x06, 0xf3, 0xfa, 0xf9, 0xf6, 0xf8, 0x06, 0xf7, 0xfd, 0x06,
  0x00, 0xfc, 0xfa, 0x0a, 0xf8, 0xfb, 0x05, 0x07, 0xfc, 0x07, 0x01, 0xfe,
  0xf1, 0xf4, 0xfa, 0x00, 0xff, 0x08, 0xf7, 0xf9, 0xf4, 0x08, 0xf3, 0x0a,
  0xf3, 0xf1, 0xfd, 0xfc, 0x02, 0xfe, 0xf1, 0x05, 0xf4, 0xf8, 0x01, 0xf7,
  0xfb, 0xfc, 0x00, 0xfc, 0x02, 0x08, 0xf8, 0x07, 0x04, 0xfd, 0xf5, 0x01,
  0xfd, 0xfb, 0x06, 0x05, 0x00, 0xff, 0x01, 0xf6, 0xf4, 0x05, 0x04, 0x01,
  0xf9, 0xf7, 0x05, 0xfd, 0xf9, 0x05, 0xfc, 0x06, 0xfb, 0xff, 0xff, 0x00,
  0xff, 0xf5, 0x04, 0x09, 0xf9, 0xf6, 0xf2, 0xfb, 0x05, 0xf8, 0xf7, 0xff,
  0xfc, 0xf4, 0xf4, 0xf5, 0xf5, 0xf7, 0x01, 0xfa, 0xf4, 0xf7, 0xf3, 0x00,
  0xfb, 0xf6, 0x04, 0xfa, 0x00, 0xfb, 0x07, 0x01, 0xfb, 0x03, 0xf2, 0xfc,
  0x06, 0x06, 0x03, 0xf3, 0xf7, 0x0a, 0xf8, 0x07, 0x06, 0x01, 0xfd, 0x06,
  0xfb, 0x03, 0xfe, 0x03, 0xfa, 0xfd, 0xf3, 0xfa, 0x08, 0xfa, 0xf5, 0xfe,
  0xff, 0x04, 0x02, 0xf6, 0x01, 0x05, 0xf6, 0xfd, 0x07, 0x00, 0xf6, 0xf5,
  0xf3, 0xfc, 0xf4, 0x01, 0x03, 0xf9, 0x09, 0xfa, 0xf2, 0x07, 0x02, 0x03,
  0xf8, 0xf6, 0x00, 0x01, 0xfb, 0x00, 0xf6, 0xff, 0xf7, 0xf7, 0xf7, 0x08,
  0x04, 0x08, 0x00, 0x08, 0xfa, 0x03, 0x03, 0x08, 0x04, 0x00, 0xfc, 0xf6,
  0xf3, 0xf7, 0x02, 0x0c, 0xf8, 0xff, 0x09, 0xf8, 0xf4, 0x01, 0x07, 0xf8,
  0xf1, 0xf1, 0x03, 0x05, 0x02, 0xf5, 0xf8, 0xf9, 0xfe, 0xfb, 0xf9, 0x03,
  0xf4, 0xf3, 0x0a, 0xf7, 0x08, 0xf8, 0x0a, 0x05, 0xfa, 0x07, 0xf7, 0x01,
  0x05, 0xfb, 0x00, 0x05, 0xfb, 0xf9, 0xf3, 0xfe, 0xfc, 0xf3, 0xfe, 0x02,
  0xf5, 0x01, 0x03, 0x06, 0xf4, 0xfb, 0xf7, 0xfc, 0xff, 0xfe, 0x02, 0xf1,
  0xfd, 0xfe, 0x07, 0x08, 0x01, 0x07, 0xff, 0xf4, 0xfb, 0xfc, 0xfe, 0xf4,
  0xf9, 0xf3, 0x04, 0x09, 0xfc, 0xfb, 0xf9, 0xf0, 0xf9, 0xfb, 0x03, 0xfd,
  0xf3, 0xf3, 0xf7, 0xf1, 0x09, 0xfc, 0x02, 0x09, 0xf0, 0xff, 0xf5, 0xf9,
  0x01, 0xf5, 0x00, 0xf5, 0xfb, 0xfe, 0x04, 0x04, 0xff, 0x06, 0xfe, 0x04,
  0xfb, 0xfb, 0xf7, 0x00, 0x07, 0x03, 0xfc, 0xf7, 0x01, 0xfc, 0x02, 0x03,
  0xf8, 0xfc, 0xf7, 0x08, 0x05, 0xfd, 0xfa, 0xf7, 0xf5, 0xf6, 0x05, 0xf7,
  0x05, 0x00, 0x0a, 0xf0, 0xff, 0xfc, 0x05, 0x01, 0xf9, 0x04, 0xf4, 0x02,
  0xf7, 0x02, 0xf2, 0xfa, 0xf8, 0xf9, 0xfe, 0x00, 0xf4, 0xf5, 0x00, 0x04,
  0xff, 0x07, 0x01, 0xff, 0xf8, 0xfb, 0x01, 0xfb, 0xf7, 0xf2, 0xf2, 0xf3,
  0xf4, 0xf3, 0x06, 0xf2, 0x03, 0x01, 0xf0, 0xf5, 0x01, 0x01, 0xf0, 0xf8,
  0xf4, 0x08, 0xfa, 0xfd, 0x05, 0xfa, 0xf3, 0xf7, 0x04, 0x06, 0xf6, 0x05,
  0xfe, 0xfc, 0x00, 0x02, 0xfe, 0xfb, 0xf2, 0xfa, 0x00, 0xf5, 0x09, 0x00,
  0xfa, 0x06, 0x00, 0xf2, 0xf9, 0xf3, 0xfc, 0x01, 0xfb, 0xef, 0xf3, 0xfe,
  0xfa, 0xf7, 0xfd, 0x05, 0xfa, 0xf4, 0x03, 0x04, 0xf0, 0xf6, 0xff, 0x07,
  0x02, 0x04, 0xf8, 0xfd, 0xfd, 0xf6, 0xf5, 0x03, 0xfe, 0xf5, 0x05, 0xff,
  0x0b, 0x01, 0xfe, 0xf5, 0xf4, 0xf8, 0xf7, 0xf7, 0xf4, 0x02, 0x0a, 0x09,
  0xf8, 0xf1, 0xf3, 0x06, 0xfb, 0x02, 0xee, 0x03, 0x0b, 0xfb, 0x05, 0xfb,
  0xff, 0xfb, 0xfa, 0xf0, 0x09, 0x09, 0xf4, 0x07, 0xf6, 0x0a, 0xf7, 0xff,
  0x05, 0xf8, 0x01, 0xfa, 0xfe, 0xf9, 0xfb, 0xfb, 0xf2, 0x01, 0x02, 0x02,
  0x03, 0xf5, 0x0b, 0x03, 0xf2, 0xf8, 0x01, 0x0b, 0xf4, 0xf4, 0xf6, 0x05,
  0xfa, 0xf7, 0x02, 0xf8, 0x06, 0xff, 0x00, 0xf8, 0x05, 0xfb, 0xfc, 0xf2,
  0xf5, 0xf9, 0xf3, 0xf9, 0xfd, 0x07, 0xf5, 0xfd, 0x0b, 0x02, 0x07, 0xfd,
  0xf9, 0xfc, 0xf3, 0xf7, 0xfa, 0xf4, 0x06, 0x05, 0x02, 0x09, 0x08, 0xfb,
  0xf9, 0xfd, 0xf7, 0xf7, 0xf5, 0xf3, 0xfb, 0x09, 0x01, 0x00, 0xfa, 0x03,
  0xff, 0xf4, 0xf7, 0xf4, 0x01, 0x08, 0xfc, 0x03, 0xfc, 0x04, 0x07, 0x02,
  0x00, 0x04, 0xf8, 0x01, 0xfb, 0xf9, 0xfc, 0xfa, 0xff, 0xfd, 0xf3, 0xf8,
  0x06, 0xfd, 0xf7, 0xf7, 0xf6, 0x06, 0x00, 0xfc, 0x0b, 0xf7, 0xef, 0xfc,
  0xf9, 0xf5, 0xf3, 0xeb, 0xfe, 0xfc, 0xfa, 0x0d, 0xfa, 0x0c, 0x10, 0x14,
  0xf1, 0xf7, 0xe5, 0x08, 0x0b, 0x14, 0xf9, 0x1f, 0xf4, 0x02, 0x06, 0xf4,
  0x02, 0x02, 0xf8, 0x02, 0xfe, 0x08, 0x00, 0xff, 0x03, 0x0b, 0x03, 0x12,
  0x07, 0x18, 0xe9, 0xfd, 0x08, 0x0c, 0x0d, 0x0d, 0xfd, 0xf4, 0x00, 0xfe,
  0xf5, 0x09, 0xf3, 0xfd, 0x00, 0x03, 0xfe, 0x07, 0xea, 0x09, 0xf3, 0x02,
  0x0c, 0x0b, 0x06, 0xf9, 0x05, 0xeb, 0xe9, 0x02, 0xff, 0xf9, 0xf9, 0xff,
  0xfb, 0xf5, 0x04, 0x14, 0xf3, 0x1a, 0x06, 0xfc, 0xfa, 0x0d, 0xfd, 0x1d,
  0xf0, 0xf0, 0xec, 0x14, 0xfc, 0x08, 0x03, 0x0e, 0x10, 0xfb, 0x12, 0x08,
  0x0a, 0x0a, 0x03, 0x07, 0x07, 0xef, 0x06, 0x0b, 0xf8, 0xfa, 0x03, 0x05,
  0xf3, 0x0a, 0x09, 0x0a, 0xfc, 0xf2, 0x0d, 0x17, 0xfb, 0x03, 0xee, 0x05,
  0x06, 0x03, 0x05, 0x00, 0xf4, 0xf7, 0x04, 0xfb, 0x00, 0x0b, 0xfa, 0xf9,
  0xfa, 0xf7, 0x05, 0x0e, 0xf1, 0x0b, 0x08, 0x1c, 0xfd, 0x07, 0xff, 0xfb,
  0xf7, 0x06, 0x0e, 0xff, 0x04, 0x08, 0x0b, 0xfd, 0xfb, 0x0a, 0xfd, 0x02,
  0x00, 0xed, 0xf2, 0x14, 0x05, 0x00, 0xf4, 0xf8, 0xf5, 0x09, 0x0a, 0xf1,
  0xfd, 0xfc, 0x08, 0xf3, 0x02, 0x01, 0xfa, 0xfe, 0x0d, 0x08, 0xed, 0x00,
  0xf5, 0x0c, 0xff, 0xf6, 0xf2, 0x07, 0x0b, 0xf1, 0x05, 0x09, 0xf5, 0xf2,
  0x06, 0x00, 0xfa, 0xf8, 0xfd, 0xfc, 0xff, 0x03, 0x03, 0xfc, 0x0d, 0x07,
  0xfb, 0x04, 0xec, 0xfe, 0xf8, 0xfd, 0x02, 0x10, 0x0a, 0x00, 0x05, 0x17,
  0xea, 0x07, 0x09, 0x02, 0xf4, 0xf6, 0xf7, 0x0e, 0xeb, 0xef, 0x00, 0x01,
  0xf0, 0xf3, 0xf7, 0x01, 0x06, 0x02, 0xfe, 0x17, 0xfb, 0xfc, 0x12, 0xfc,
  0x10, 0xff, 0xfd, 0xfd, 0xf1, 0xfe, 0x00, 0x04, 0x0c, 0xf5, 0xfe, 0xf8,
  0x02, 0xf8, 0xdf, 0xfe, 0x07, 0xf9, 0xef, 0xfb, 0x11, 0xfa, 0x01, 0xec,
  0x00, 0xfd, 0x0f, 0xf6, 0x03, 0xfa, 0xf4, 0xfa, 0xf0, 0x09, 0xf7, 0xf6,
  0x07, 0x04, 0xfd, 0x0b, 0x12, 0xfe, 0x08, 0xfc, 0xfe, 0x00, 0xf5, 0xf3,
  0xfb, 0xfa, 0x04, 0x07, 0xf8, 0x03, 0x0b, 0x02, 0xf6, 0x05, 0x08, 0x04,
  0x01, 0x12, 0xfe, 0x0e, 0x06, 0xf9, 0x12, 0xfd, 0x02, 0xfe, 0x07, 0x01,
  0xfc, 0x02, 0x11, 0x0d, 0xfa, 0xfa, 0x14, 0xfc, 0xff, 0x0f, 0xfa, 0x07,
  0xf2, 0xf4, 0xf4, 0x0f, 0xfb, 0xf7, 0xf9, 0xf6, 0x08, 0xf6, 0xff, 0x09,
  0xfd, 0xf0, 0x0a, 0x06, 0x08, 0xf6, 0xfd, 0x03, 0x08, 0xf3, 0xfc, 0x02,
  0x0b, 0xfa, 0x08, 0xfc, 0xf9, 0x08, 0xfb, 0xef, 0xf6, 0xff, 0xf6, 0x00,
  0x02, 0x01, 0xf4, 0xf9, 0xfa, 0xf0, 0x0f, 0x0e, 0x04, 0xf2, 0x08, 0x0b,
  0x01, 0x10, 0xf3, 0xf2, 0x0f, 0xf4, 0xf6, 0xff, 0xfb, 0xfd, 0xfc, 0x04,
  0xec, 0x02, 0x03, 0x13, 0xf4, 0x0f, 0x16, 0x05, 0xf9, 0x04, 0xe8, 0x00,
  0x0e, 0xf0, 0xfa, 0x14, 0xec, 0xee, 0xec, 0xf2, 0xf3, 0x08, 0xf2, 0xfc,
  0xeb, 0x18, 0x0f, 0x02, 0xf9, 0x0e, 0xe8, 0x08, 0xf7, 0x09, 0xed, 0x00,
  0xf8, 0x02, 0x03, 0xfe, 0xf4, 0xf7, 0xf8, 0xeb, 0xeb, 0x0e, 0x05, 0xf5,
  0x03, 0x0c, 0xf6, 0xf8, 0xf6, 0x00, 0x0b, 0xfb, 0xfa, 0x08, 0x10, 0x08,
  0x0f, 0xf9, 0x05, 0xf0, 0x05, 0x01, 0x16, 0x00, 0x15, 0xff, 0xf2, 0xf1,
  0xf4, 0x06, 0x1b, 0x02, 0xf8, 0x21, 0x0f, 0x0c, 0x13, 0x05, 0x00, 0x07,
  0xf1, 0xf7, 0xfe, 0xf0, 0x0e, 0x02, 0xf7, 0xea, 0xf9, 0x05, 0x0f, 0x0a,
  0xf6, 0x06, 0x13, 0x0a, 0x00, 0x01, 0x04, 0xf7, 0xf7, 0x0a, 0xf8, 0x08,
  0x07, 0x05, 0xfb, 0xf5, 0xfb, 0xee, 0x0d, 0xf7, 0xfd, 0x0b, 0x0b, 0x0c,
  0xfd, 0xfe, 0xf9, 0xeb, 0xf4, 0x0f, 0xfb, 0xf8, 0x1b, 0xee, 0x00, 0xf5,
  0x04, 0x01, 0x08, 0x05, 0xf6, 0x05, 0xfc, 0xf6, 0x05, 0xfe, 0xfa, 0xf9,
  0xfb, 0xff, 0xfc, 0xe7, 0x12, 0x05, 0xf9, 0xf6, 0xf1, 0xf2, 0xf5, 0x0d,
  0x06, 0xfb, 0xf7, 0xee, 0x0c, 0x03, 0xf7, 0x07, 0xf6, 0xfa, 0xfb, 0xf7,
  0xfd, 0xf2, 0xe7, 0xf3, 0xfa, 0xf1, 0xef, 0xfc, 0x01, 0xfe, 0xf9, 0xf6,
  0xf3, 0xfa, 0xfd, 0x08, 0xf8, 0xf2, 0xfb, 0x12, 0xf5, 0xe9, 0xeb, 0x06,
  0x08, 0xf1, 0xff, 0xfc, 0x07, 0xf3, 0xf4, 0x02, 0xf9, 0xf8, 0xfb, 0x06,
  0xfe, 0xf2, 0xfe, 0x17, 0x04, 0xf6, 0xfb, 0xfb, 0xf8, 0xe7, 0x42, 0x1c,
  0xec, 0xe2, 0x28, 0x1f, 0xf5, 0xec, 0xf5, 0xf3, 0x00, 0xfd, 0xf4, 0xf9,
  0x54, 0x0b, 0xfd, 0x14, 0xfe, 0xfc, 0x26, 0x15, 0x22, 0x24, 0x04, 0x05,
  0x00, 0xe4, 0x1b, 0x05, 0x1c, 0x19, 0xf7, 0xe0, 0x08, 0x08, 0x31, 0xf2,
  0xfe, 0x22, 0x06, 0x00, 0x2f, 0x35, 0xee, 0x01, 0x03, 0xf2, 0xf1, 0xef,
  0xf3, 0x05, 0xfc, 0x08, 0xf4, 0xeb, 0x09, 0x0d, 0xf9, 0x03, 0x08, 0x07,
  0x04, 0x0b, 0xf8, 0x0b, 0xfb, 0xde, 0x06, 0xf7, 0xfb, 0x0d, 0x0b, 0x1d,
  0x01, 0xd2, 0x19, 0x36, 0xe8, 0xe4, 0x1c, 0x06, 0x12, 0xd7, 0x20, 0x2b,
  0xee, 0xf7, 0xf1, 0x07, 0xf8, 0x01, 0x05, 0x27, 0x02, 0xdc, 0x2b, 0x0e,
  0xf3, 0xfc, 0x2c, 0x07, 0x10, 0xea, 0x18, 0x1d, 0x05, 0xff, 0x22, 0x0c,
  0x0d, 0x01, 0x05, 0x1d, 0xeb, 0x12, 0x26, 0x0e, 0xef, 0xe8, 0x10, 0x13,
  0x1b, 0xe9, 0x33, 0x11, 0x0b, 0x07, 0x14, 0xfb, 0x23, 0x02, 0x13, 0x01,
  0x0b, 0x05, 0x1a, 0xc0, 0xe5, 0xe7, 0xc8, 0xf4, 0x18, 0xf7, 0xe0, 0xbc,
  0xf1, 0x07, 0xfd, 0x06, 0x15, 0x05, 0x08, 0xd8, 0xe3, 0x09, 0xc3, 0xc1,
  0xf5, 0xd7, 0xd8, 0x06, 0x0f, 0x14, 0xf0, 0x03, 0x02, 0xc5, 0xf6, 0x08,
  0xf9, 0x07, 0x0e, 0x0c, 0xe5, 0xe9, 0x01, 0x0c, 0xf3, 0x01, 0xfe, 0x20,
  0x13, 0xdf, 0x0d, 0x05, 0xdf, 0xec, 0x04, 0x0c, 0xef, 0x0d, 0x13, 0x07,
  0xfe, 0xed, 0x09, 0xee, 0x1d, 0xf1, 0x12, 0x0e, 0xf7, 0x00, 0xf8, 0x18,
  0xf9, 0x14, 0xf7, 0xfa, 0xfb, 0x10, 0xf3, 0xec, 0x0e, 0x05, 0xfd, 0x1c,
  0x0a, 0xff, 0x06, 0x18, 0xf2, 0x1a, 0xfe, 0x1c, 0x05, 0xf6, 0xf9, 0xfd,
  0xfb, 0x08, 0x04, 0x01, 0x16, 0x01, 0x08, 0x2e, 0xe8, 0x0b, 0x11, 0x05,
  0xf6, 0x0f, 0x25, 0x17, 0xf9, 0xf5, 0xdf, 0xf2, 0x0e, 0xf6, 0xf6, 0xff,
  0xf9, 0x00, 0xfe, 0x14, 0xfd, 0x01, 0x18, 0x27, 0x03, 0x04, 0x1b, 0xfd,
  0xfa, 0x0b, 0x16, 0x01, 0x18, 0xf6, 0xf7, 0x04, 0x1e, 0xf7, 0x15, 0x2e,
  0x0d, 0xe5, 0xe7, 0x0b, 0x3c, 0x01, 0xe5, 0xf6, 0x0a, 0xf7, 0x0c, 0x03,
  0x09, 0x02, 0x05, 0x2c, 0xff, 0x11, 0x07, 0x41, 0xea, 0xeb, 0xeb, 0x0c,
  0x25, 0x09, 0xf0, 0x00, 0xe8, 0xdc, 0xfe, 0x0c, 0x01, 0xf4, 0xfe, 0xfb,
  0xee, 0xef, 0xf7, 0x15, 0xef, 0xf9, 0xfd, 0x02, 0x06, 0x07, 0xff, 0x08,
  0xe4, 0xde, 0xfb, 0x21, 0xde, 0x10, 0x05, 0x0c, 0xf4, 0xf1, 0x1b, 0x17,
  0xf5, 0xef, 0xfd, 0x1a, 0xff, 0xf4, 0xf6, 0xf7, 0xd2, 0xe8, 0x05, 0x25,
  0xf5, 0x0c, 0x01, 0xfd, 0xef, 0xf5, 0x05, 0x11, 0xea, 0x08, 0x00, 0x15,
  0xed, 0x0f, 0xfc, 0x19, 0xef, 0xeb, 0xec, 0x07, 0xf7, 0x13, 0xfe, 0xf9,
  0x06, 0xe9, 0x0c, 0x1c, 0xf3, 0x1f, 0xfd, 0x14, 0xe0, 0x2c, 0x13, 0x12,
  0xee, 0xec, 0x03, 0xcf, 0xf4, 0xee, 0xef, 0xe0, 0x12, 0xfc, 0x08, 0x23,
  0xea, 0x32, 0x0f, 0x14, 0xd0, 0x0d, 0x0a, 0xf4, 0xf9, 0x01, 0x00, 0xd0,
  0x01, 0xe0, 0xe1, 0xe6, 0x13, 0xf0, 0x15, 0x08, 0x02, 0x0b, 0xf3, 0x06,
  0xc1, 0xfe, 0xf4, 0xe5, 0xf8, 0x00, 0x09, 0xdb, 0xf4, 0xc9, 0xe1, 0xf0,
  0x08, 0x03, 0xec, 0x32, 0x06, 0xe6, 0x0b, 0x26, 0xe5, 0xec, 0x0f, 0xff,
  0xf8, 0xf9, 0x02, 0xfe, 0x00, 0xe9, 0xea, 0x00, 0x0a, 0xff, 0x06, 0x03,
  0x16, 0xfa, 0x06, 0x08, 0xf2, 0xea, 0xf9, 0xf6, 0xf8, 0x0b, 0x00, 0x06,
  0x0d, 0xe8, 0xf6, 0xf6, 0x0b, 0x07, 0xff, 0xf3, 0x19, 0xfb, 0x10, 0x14,
  0xe5, 0xe0, 0xf2, 0xff, 0x19, 0x13, 0x13, 0xf8, 0x01, 0xec, 0xfc, 0xf0,
  0x12, 0x13, 0x06, 0xdf, 0x12, 0xec, 0xe6, 0x15, 0x03, 0xfb, 0xe8, 0xdd,
  0x18, 0x10, 0x0a, 0xf5, 0x0e, 0xe3, 0xe5, 0xee, 0x05, 0x13, 0xf4, 0xf3,
  0x12, 0xe6, 0xe8, 0x20, 0x1b, 0x21, 0xf0, 0xf4, 0x0f, 0x08, 0x17, 0xf8,
  0x11, 0xea, 0xed, 0xfd, 0xe9, 0x1d, 0xf1, 0xe3, 0x0e, 0x09, 0xf0, 0x12,
  0x0c, 0x1c, 0xee, 0xea, 0x0e, 0xf8, 0x13, 0x00, 0x0c, 0xd0, 0xd4, 0x0a,
  0x00, 0xf8, 0xed, 0xf9, 0x09, 0xdb, 0xfc, 0x0e, 0xff, 0xeb, 0xd9, 0xef,
  0x08, 0x09, 0xfe, 0xfe, 0xfe, 0xee, 0xff, 0x05, 0xfd, 0xf4, 0xe0, 0xff,
  0xef, 0xfd, 0xf7, 0x15, 0x09, 0x16, 0xef, 0xf4, 0x00, 0xfe, 0x06, 0x04,
  0xfb, 0x06, 0xfa, 0xef, 0xe0, 0x04, 0x1b, 0x1a, 0x06, 0xe4, 0x13, 0x0b,
  0x07, 0xfe, 0x04, 0x08, 0x0b, 0x13, 0x1d, 0x1c, 0x1b, 0x02, 0x0e, 0xe6,
  0x18, 0x12, 0xcb, 0xf8, 0x09, 0x06, 0x05, 0x06, 0xf4, 0x07, 0xf9, 0xf9,
  0x06, 0x04, 0xf6, 0xf7, 0x02, 0xfc, 0xf2, 0xe9, 0xfb, 0x01, 0xf4, 0x0f,
  0x0f, 0x07, 0xf1, 0x10, 0xea, 0x1d, 0xfb, 0xff, 0x07, 0x06, 0x12, 0xee,
  0xf9, 0xf3, 0xf9, 0xfb, 0x0d, 0x01, 0x13, 0x2f, 0x01, 0x2b, 0x20, 0x00,
  0xe7, 0x2d, 0x06, 0x08, 0x1b, 0x24, 0x04, 0xdc, 0x0d, 0xe1, 0xcf, 0xe3,
  0x14, 0x0d, 0xef, 0xf5, 0x07, 0x20, 0xfa, 0xf5, 0x1e, 0x2c, 0xf5, 0xea,
  0x05, 0xf9, 0xfa, 0xec, 0x17, 0xdd, 0xc3, 0x10, 0xfc, 0xee, 0xe7, 0xf5,
  0xf5, 0xfb, 0xe8, 0xfe, 0x1d, 0xfd, 0xdb, 0xe0, 0xe7, 0xfa, 0xfb, 0xee,
  0xf6, 0xd1, 0xc6, 0x02, 0x08, 0xea, 0xbf, 0xe4, 0xff, 0xea, 0xfc, 0x00,
  0xf9, 0xec, 0xe1, 0xec, 0xea, 0xe6, 0xea, 0xf7, 0xea, 0xd1, 0xdf, 0x11,
  0xfa, 0xee, 0xf7, 0x12, 0x1d, 0xfe, 0x09, 0xf8, 0xf3, 0xe7, 0x14, 0x1f,
  0xfb, 0x0c, 0x04, 0x06, 0xfb, 0xf2, 0x04, 0x20, 0x36, 0x0a, 0x13, 0x0d,
  0x12, 0x37, 0x11, 0xff, 0x18, 0xfc, 0x0f, 0xf3, 0xeb, 0x2b, 0x1a, 0x1e,
  0x35, 0xef, 0x0a, 0x09, 0x1f, 0x26, 0xf1, 0xca, 0x1a, 0xe6, 0xf1, 0xf6,
  0x16, 0xc7, 0xed, 0xf7, 0x0d, 0x06, 0x0a, 0x16, 0x0d, 0x09, 0x04, 0xf6,
  0xe2, 0x0a, 0xe6, 0xe1, 0xf9, 0xe3, 0xe7, 0xf5, 0x01, 0x17, 0xe7, 0xdb,
  0x04, 0xef, 0xfb, 0x0a, 0x07, 0xfb, 0xf4, 0x04, 0xd7, 0x07, 0x1b, 0xff,
  0xf2, 0x0c, 0xfd, 0x0b, 0x07, 0x0a, 0x06, 0x08, 0xfa, 0xeb, 0x06, 0x14,
  0xf5, 0x11, 0x05, 0x1c, 0x05, 0xf2, 0xec, 0xe9, 0x00, 0x09, 0x34, 0x0b,
  0xf1, 0x00, 0x1d, 0xeb, 0xe8, 0xf8, 0x04, 0x0c, 0xfb, 0xfd, 0x1b, 0xef,
  0x3a, 0x0f, 0x17, 0x30, 0x0a, 0x18, 0x03, 0xfe, 0x1b, 0x14, 0xef, 0x13,
  0x14, 0xf0, 0x0c, 0x10, 0x00, 0x1a, 0x03, 0x04, 0x08, 0x1c, 0x03, 0x25,
  0x06, 0xf5, 0xf2, 0x00, 0x0a, 0xe5, 0xea, 0x00, 0xf7, 0xec, 0xfd, 0xf9,
  0xe4, 0x02, 0x05, 0xf4, 0x02, 0x09, 0x03, 0x37, 0x00, 0x0b, 0x0e, 0x0a,
  0xc8, 0x08, 0x10, 0x26, 0xf7, 0xf5, 0xda, 0xff, 0xf0, 0x00, 0x03, 0xdd,
  0x0c, 0xf7, 0x03, 0x2f, 0x08, 0xfa, 0x12, 0x04, 0xd9, 0xeb, 0x00, 0xf0,
  0xd9, 0xf8, 0xf5, 0x08, 0x01, 0xfc, 0x03, 0xe2, 0x17, 0x02, 0xe3, 0x2e,
  0x24, 0xe4, 0xf2, 0x05, 0xf2, 0xf6, 0xee, 0xf0, 0x00, 0x00, 0xfd, 0xf8,
  0xf9, 0x12, 0x0a, 0xd2, 0xf3, 0x09, 0xed, 0x2d, 0x0d, 0x00, 0x01, 0xfa,
  0xfc, 0x08, 0xf9, 0xf4, 0x11, 0x0c, 0x00, 0xe5, 0x06, 0x17, 0x15, 0xcf,
  0x06, 0x13, 0xe3, 0x1b, 0x0d, 0x00, 0xfb, 0x00, 0xed, 0x08, 0xe9, 0xf3,
  0xfa, 0x02, 0x07, 0xf3, 0xfe, 0x0a, 0xfd, 0xe8, 0xf5, 0xff, 0xec, 0x31,
  0xf4, 0x0c, 0xf1, 0xfd, 0x00, 0x08, 0x01, 0x10, 0xfc, 0xfa, 0x0f, 0xfc,
  0x0e, 0xf8, 0xf4, 0xfe, 0xf4, 0x08, 0xef, 0x36, 0xf0, 0x0a, 0xd8, 0xf7,
  0x23, 0xf3, 0xe9, 0x14, 0x01, 0x07, 0x0d, 0x08, 0x04, 0xf3, 0xfd, 0x1a,
  0x0a, 0xfe, 0xef, 0x39, 0xf8, 0xfb, 0x02, 0x0a, 0xeb, 0xe6, 0x0b, 0x20,
  0xf4, 0xf1, 0xf9, 0x03, 0xed, 0xfb, 0x08, 0x06, 0xff, 0xf3, 0x10, 0x00,
  0xfb, 0x01, 0x0b, 0xf7, 0xff, 0xf1, 0xfb, 0xf1, 0xf1, 0x02, 0xf2, 0xf9,
  0x01, 0xfd, 0x10, 0x0e, 0x19, 0xfd, 0x02, 0xe7, 0xf7, 0x08, 0x07, 0xf8,
  0xfe, 0xef, 0xe7, 0xe6, 0x00, 0x01, 0xf8, 0xf9, 0x09, 0xfa, 0xf0, 0x01,
  0xf8, 0xf5, 0xf6, 0xf2, 0xff, 0xed, 0xf9, 0xf8, 0x0a, 0xe8, 0xf7, 0xf5,
  0x02, 0x09, 0x0a, 0x06, 0xfc, 0xfa, 0x00, 0x07, 0x01, 0xf1, 0xfa, 0xe8,
  0xf6, 0xff, 0x06, 0xfb, 0x09, 0xf8, 0x0e, 0x09, 0xf7, 0xf6, 0x09, 0x16,
  0xff, 0xf7, 0xf4, 0xfd, 0x06, 0x04, 0x13, 0x06, 0xfb, 0xf7, 0x1a, 0x0e,
  0x0e, 0x10, 0x12, 0x0f, 0x04, 0x02, 0x0b, 0x06, 0x0a, 0xff, 0x01, 0x09,
  0x08, 0x13, 0x22, 0xf7, 0x04, 0x09, 0x0b, 0xe6, 0x1c, 0x14, 0x16, 0x03,
  0x02, 0x0e, 0x0a, 0x11, 0x0c, 0x0d, 0x07, 0x2f, 0x11, 0x0a, 0x06, 0xf4,
  0x31, 0xf8, 0xff, 0x1a, 0x14, 0x1d, 0x0b, 0x03, 0x0e, 0x26, 0x05, 0x00,
  0xff, 0x13, 0xf6, 0x03, 0x19, 0xf5, 0xff, 0x14, 0x0a, 0xc6, 0xd1, 0x0f,
  0x1f, 0x05, 0xe9, 0xe3, 0x1e, 0x17, 0x12, 0x1a, 0x10, 0xe8, 0xdd, 0x02,
  0xcd, 0x10, 0xdf, 0xeb, 0xfa, 0xd2, 0xef, 0x06, 0x03, 0xec, 0xe8, 0xe4,
  0xff, 0xfd, 0x04, 0xfd, 0x12, 0xe8, 0xe8, 0x00, 0xf1, 0x09, 0xe0, 0xeb,
  0x06, 0xe0, 0xf3, 0x01, 0x05, 0xee, 0xc5, 0xcc, 0xff, 0xfd, 0xe4, 0xf3,
  0x07, 0xf5, 0x0c, 0x01, 0xe8, 0x08, 0xdc, 0xeb, 0xeb, 0xe6, 0xdc, 0x0a,
  0x27, 0xfa, 0xf1, 0xf9, 0x1e, 0xfd, 0xf8, 0x0a, 0x10, 0x18, 0x03, 0x0d,
  0xed, 0xf6, 0xfb, 0x16, 0x01, 0xe0, 0x11, 0x11, 0x03, 0xf3, 0x22, 0x1d,
  0xf0, 0x16, 0x08, 0xf9, 0x08, 0x0c, 0x04, 0x20, 0x05, 0x0d, 0x23, 0x24,
  0xef, 0x07, 0x11, 0x06, 0x1a, 0x01, 0x13, 0x26, 0x21, 0xfd, 0x14, 0x0b,
  0xfa, 0x07, 0xfd, 0x29, 0xfc, 0x06, 0x36, 0x34, 0xff, 0x01, 0x1a, 0x11,
  0x1a, 0x21, 0x20, 0x13, 0xf8, 0x24, 0x0f, 0xf4, 0x1a, 0x00, 0x03, 0xeb,
  0x23, 0x13, 0xff, 0x0b, 0x0d, 0xe2, 0xcf, 0x05, 0x0b, 0x08, 0xd5, 0xdb,
  0x25, 0x10, 0x0c, 0xe6, 0x15, 0xf9, 0x02, 0xe2, 0xc1, 0x0d, 0x9a, 0x09,
  0xf2, 0x81, 0x8d, 0xf6, 0xf6, 0x02, 0xc7, 0xfd, 0xf0, 0xf8, 0xe6, 0xff,
  0xe9, 0xf7, 0x01, 0xf5, 0xf4, 0xf6, 0xa2, 0xbb, 0x06, 0xfb, 0xe7, 0x03,
  0xf6, 0xe8, 0x0f, 0xff, 0xfb, 0xe1, 0xfc, 0x0d, 0xc6, 0x0a, 0x13, 0x0f,
  0xef, 0xf9, 0xde, 0xe5, 0x0f, 0x22, 0xef, 0xf9, 0x1e, 0x06, 0x13, 0xf1,
  0x0c, 0x0c, 0xf2, 0x08, 0xe3, 0xfd, 0x0e, 0xfe, 0xfd, 0x05, 0x06, 0x01,
  0x0a, 0xfb, 0x01, 0x09, 0xe6, 0x10, 0xd2, 0xe8, 0x06, 0x04, 0x0b, 0x14,
  0xe2, 0x13, 0x02, 0x0a, 0xfa, 0x0c, 0xdd, 0xe9, 0xff, 0x00, 0xd5, 0x10,
  0xee, 0x08, 0xec, 0x07, 0xfd, 0x0b, 0xe1, 0xf6, 0xde, 0xff, 0x08, 0xde,
  0xc9, 0x08, 0xf0, 0xf7, 0xee, 0x1b, 0x08, 0x04, 0xe0, 0x1a, 0x03, 0x12,
  0xe0, 0xe8, 0xe2, 0xf5, 0xef, 0xf0, 0xf2, 0xce, 0x0f, 0xe7, 0xff, 0x16,
  0xba, 0xf2, 0xfb, 0x02, 0xe4, 0x0d, 0xfc, 0x16, 0xe4, 0xfa, 0xe7, 0xdc,
  0xe4, 0x08, 0xe4, 0xee, 0x08, 0xd0, 0xfc, 0x04, 0xf3, 0xe2, 0x17, 0xff,
  0xcc, 0xe4, 0x0b, 0x00, 0xeb, 0x00, 0xfd, 0xf2, 0xee, 0xdc, 0xe3, 0xde,
  0x28, 0xec, 0x0d, 0xd1, 0x07, 0xe5, 0x1a, 0x0e, 0xd4, 0xd0, 0x0c, 0xf9,
  0x03, 0x07, 0xf2, 0xee, 0x08, 0xe2, 0xe0, 0xe3, 0x08, 0x05, 0x00, 0xd7,
  0x13, 0xca, 0x04, 0x06, 0x09, 0xc4, 0xf5, 0xd5, 0x01, 0x0e, 0x08, 0x07,
  0x0c, 0x1a, 0xfa, 0xee, 0xfd, 0x18, 0xf7, 0xb9, 0x09, 0xe8, 0xf0, 0x0f,
  0x08, 0x12, 0xf5, 0xed, 0x05, 0x02, 0x0e, 0x0d, 0x0a, 0x27, 0x01, 0x0c,
  0xfa, 0x17, 0xe5, 0xda, 0xfe, 0xef, 0x07, 0xfe, 0x00, 0xfd, 0x0e, 0x08,
  0x03, 0xfb, 0x05, 0x01, 0xf8, 0x19, 0xff, 0xfc, 0x15, 0xf5, 0x15, 0xe6,
  0x05, 0xf5, 0x0f, 0xfe, 0xf9, 0xe9, 0xff, 0xeb, 0x05, 0x04, 0x05, 0x0b,
  0xfa, 0x11, 0xfe, 0x10, 0x11, 0x05, 0xe8, 0xf6, 0x12, 0xe6, 0xdd, 0xf5,
  0xf5, 0xe5, 0xf6, 0xe6, 0x09, 0x11, 0xf6, 0x08, 0x0b, 0x05, 0xff, 0x04,
  0xf4, 0xf7, 0xee, 0xe9, 0x03, 0xcc, 0xe8, 0x04, 0xfb, 0xe7, 0xf2, 0xec,
  0x01, 0xfe, 0xfc, 0x00, 0xf7, 0x01, 0x10, 0xfa, 0xf1, 0x01, 0xf6, 0xd6,
  0xef, 0xa7, 0xe0, 0x09, 0xfa, 0x02, 0xff, 0xd9, 0xf7, 0x0f, 0x0b, 0x0a,
  0xf5, 0x10, 0x0b, 0xf5, 0xdb, 0xf8, 0xd2, 0xa9, 0xf3, 0xce, 0xd8, 0xfa,
  0x08, 0xfe, 0xeb, 0xc5, 0x01, 0xfd, 0x05, 0x00, 0x09, 0x02, 0x0b, 0xda,
  0xc3, 0xf9, 0xf4, 0xb2, 0xe5, 0xf1, 0xe4, 0x0d, 0xfb, 0x01, 0xd5, 0xdc,
  0xfb, 0xeb, 0x00, 0xf6, 0x0b, 0xf8, 0xfe, 0xf8, 0xcf, 0xfe, 0xe2, 0xcd,
  0xf0, 0x02, 0xd6, 0xfd, 0xfe, 0x0a, 0xd7, 0xd8, 0xfe, 0xf6, 0xf4, 0x0b,
  0xf5, 0xfb, 0x05, 0x08, 0xdd, 0xf5, 0xe3, 0x06, 0x15, 0x05, 0xdf, 0xf3,
  0x08, 0xf9, 0xe6, 0x05, 0xe7, 0xe9, 0xf3, 0x0e, 0xe1, 0xfb, 0x09, 0xfe,
  0xe8, 0xea, 0x04, 0x18, 0x03, 0x01, 0xe8, 0x07, 0xe4, 0xf9, 0xfe, 0x12,
  0xe4, 0xf2, 0xe6, 0xf3, 0xd9, 0x0e, 0x01, 0xf2, 0x09, 0xe7, 0xf9, 0x16,
  0xfd, 0x2c, 0x09, 0x04, 0xfb, 0xfa, 0xed, 0x1a, 0xdf, 0xd5, 0xf1, 0x24,
  0xed, 0x06, 0x1a, 0x18, 0x08, 0xf9, 0x16, 0x0c, 0xdc, 0x1c, 0x18, 0x07,
  0xec, 0x09, 0xe8, 0xf8, 0xb4, 0xc9, 0xde, 0xeb, 0xfd, 0xf6, 0xfd, 0x01,
  0x17, 0xd3, 0x1b, 0x08, 0xd4, 0x0b, 0xe0, 0x07, 0x17, 0xff, 0xf4, 0xf8,
  0xe4, 0xc7, 0xf2, 0xe9, 0xe7, 0xf1, 0xf0, 0x28, 0xf8, 0xb6, 0xf1, 0x06,
  0xd0, 0x14, 0xeb, 0x0f, 0xfb, 0xef, 0xe5, 0xf0, 0xc7, 0xc8, 0xd5, 0xd9,
  0xe5, 0xfc, 0xf4, 0x0f, 0xd8, 0xc0, 0xf3, 0x05, 0xd2, 0x1d, 0xca, 0x01,
  0xfb, 0x0d, 0xeb, 0xea, 0xe8, 0xba, 0xd7, 0xe7, 0xca, 0xe6, 0xfc, 0x0f,
  0xe1, 0xb2, 0x0c, 0x2b, 0xdd, 0x01, 0xe0, 0xff, 0xcb, 0x08, 0x03, 0xfb,
  0xce, 0xc3, 0xa9, 0xb2, 0xa4, 0xe3, 0xf7, 0xd3, 0x1f, 0x90, 0x00, 0x21,
  0xd7, 0x00, 0xf2, 0x24, 0x9d, 0x04, 0xeb, 0x03, 0xc3, 0xd3, 0xc8, 0xad,
  0xc9, 0xdd, 0xe0, 0xa7, 0x22, 0xe1, 0xda, 0x19, 0xde, 0x14, 0x0a, 0x08,
  0xd1, 0x1f, 0xce, 0xed, 0xe9, 0xf6, 0x03, 0xc0, 0x08, 0xda, 0xed, 0xce,
  0x03, 0xed, 0xe2, 0xf1, 0xea, 0xe5, 0xec, 0x11, 0x05, 0x04, 0xf3, 0xfd,
  0xf2, 0xe6, 0xf8, 0xda, 0x0e, 0xeb, 0xc9, 0x1d, 0xf0, 0xe6, 0x11, 0x3d,
  0x01, 0x21, 0x1d, 0x2a, 0xe9, 0xf5, 0x07, 0xfd, 0x17, 0x09, 0xf0, 0xd4,
  0xf1, 0xce, 0xcd, 0xea, 0x04, 0x0d, 0xfc, 0x10, 0xed, 0xf5, 0x00, 0x1c,
  0x0b, 0xf2, 0xf7, 0xed, 0xea, 0xfb, 0x17, 0x04, 0xf2, 0xff, 0xfd, 0x09,
  0x08, 0xfe, 0xee, 0x24, 0x01, 0xfd, 0x0a, 0x16, 0x09, 0xf3, 0xfa, 0x0a,
  0x02, 0x08, 0x04, 0xe8, 0x06, 0x03, 0x0b, 0x04, 0x2a, 0xfd, 0x0f, 0xf5,
  0xfa, 0xff, 0xe9, 0x16, 0xfc, 0x15, 0xe9, 0xf2, 0x0f, 0x09, 0x02, 0xf7,
  0x0e, 0xfb, 0xf9, 0xf2, 0xfb, 0x09, 0xf6, 0x14, 0x0b, 0xd3, 0xdf, 0xff,
  0x03, 0xd6, 0xc9, 0x28, 0x0b, 0xfe, 0x0e, 0x12, 0xf7, 0xde, 0x0e, 0x2f,
  0x1e, 0xe2, 0xcb, 0xf1, 0x16, 0xaf, 0x3a, 0x1e, 0x03, 0xff, 0x1a, 0xdc,
  0xee, 0x03, 0xf2, 0x30, 0xff, 0x07, 0x1a, 0x1a, 0x32, 0x0d, 0x09, 0xd3,
  0x22, 0xec, 0x38, 0x0d, 0x3b, 0xe2, 0x16, 0x15, 0xf8, 0x17, 0x11, 0x1a,
  0xf7, 0x15, 0x0d, 0x19, 0x18, 0x22, 0x06, 0x02, 0x1b, 0x03, 0x0f, 0x13,
  0x1a, 0xf4, 0x06, 0xed, 0x18, 0x20, 0x20, 0x0e, 0x03, 0x1f, 0x12, 0x01,
  0x06, 0x16, 0xee, 0xe1, 0x06, 0x00, 0xf0, 0xfc, 0x08, 0x07, 0xf5, 0xfd,
  0x2f, 0x09, 0x10, 0x09, 0x05, 0x1d, 0x07, 0xeb, 0xde, 0x07, 0x16, 0xee,
  0x07, 0x2e, 0x23, 0x13, 0xf5, 0x15, 0x1a, 0x31, 0x01, 0x04, 0x13, 0x03,
  0xf6, 0xfe, 0xfb, 0xdc, 0xfb, 0x10, 0x2a, 0x1e, 0xfc, 0x26, 0x28, 0x04,
  0xf2, 0x26, 0x0a, 0x22, 0xf4, 0xf6, 0x02, 0xfb, 0x0c, 0xf9, 0xfc, 0xfb,
  0x1a, 0x0c, 0x19, 0x01, 0xf8, 0x23, 0x07, 0xfe, 0x01, 0x23, 0x14, 0x05,
  0xf3, 0xef, 0x00, 0x0d, 0x10, 0xff, 0xf5, 0x07, 0x00, 0x00, 0x18, 0x05,
  0x0c, 0x0c, 0x07, 0x09, 0x09, 0x0a, 0xf9, 0x05, 0xff, 0xf5, 0x08, 0x09,
  0x0f, 0xef, 0xfa, 0x09, 0x07, 0x07, 0xf5, 0xf7, 0x1f, 0x05, 0x09, 0x01,
  0x08, 0x05, 0xf5, 0xfe, 0xee, 0x00, 0xf3, 0x22, 0xf6, 0xf6, 0xf8, 0x05,
  0xfe, 0xf8, 0xfb, 0x04, 0xfe, 0x08, 0xf9, 0x07, 0x03, 0x13, 0x01, 0x04,
  0x0c, 0xfb, 0xf5, 0xec, 0xfe, 0x1b, 0x12, 0x0c, 0x08, 0x05, 0x12, 0x1f,
  0xef, 0x18, 0x1b, 0x14, 0x09, 0x18, 0xfa, 0x04, 0xfa, 0xf3, 0x05, 0xee,
  0x0e, 0x15, 0xf2, 0x00, 0x17, 0x00, 0xf7, 0xf6, 0xd0, 0x02, 0xfd, 0x05,
  0x12, 0xf9, 0xf5, 0xfd, 0x05, 0xf7, 0x0d, 0x0b, 0xf8, 0xf9, 0xde, 0x19,
  0xf5, 0xec, 0x13, 0xf0, 0xea, 0x06, 0x02, 0x04, 0x19, 0xf2, 0xef, 0xf3,
  0xff, 0xe1, 0x06, 0x13, 0xf7, 0xe9, 0xf1, 0x25, 0xdc, 0xe9, 0x0e, 0xe7,
  0xe7, 0xfe, 0xfa, 0x10, 0x14, 0x01, 0x0c, 0x13, 0xf7, 0xf0, 0xf8, 0x21,
  0x02, 0xe7, 0x0a, 0x2b, 0xdc, 0xf6, 0x10, 0xf8, 0xf7, 0x06, 0x08, 0x19,
  0xf5, 0x02, 0x06, 0xf4, 0xf1, 0xff, 0x01, 0x0c, 0x02, 0xfe, 0x16, 0x10,
  0x01, 0xfa, 0xf2, 0xf5, 0x01, 0xf2, 0xf6, 0x14, 0xef, 0x09, 0xf3, 0xf0,
  0xf2, 0xf2, 0xf0, 0xe8, 0xff, 0x19, 0xfc, 0xe4, 0xf7, 0x06, 0xf5, 0xef,
  0xf2, 0x09, 0x09, 0xf9, 0x01, 0x12, 0xfd, 0x00, 0x00, 0xfb, 0xf8, 0xf1,
  0xfd, 0xf9, 0xe4, 0xef, 0xf8, 0xf9, 0x0f, 0xf6, 0x06, 0x22, 0xd2, 0x10,
  0x3c, 0x39, 0x04, 0xf1, 0x29, 0xfd, 0x19, 0x2e, 0xf4, 0x19, 0x14, 0xf1,
  0xab, 0x10, 0xd9, 0xdb, 0xfd, 0x0d, 0xcf, 0xfb, 0x04, 0xfc, 0xdb, 0xdf,
  0xed, 0xd5, 0xde, 0x00, 0xe0, 0x0c, 0x0f, 0xfd, 0xe8, 0xe3, 0xc9, 0x15,
  0x07, 0xf5, 0xd7, 0xff, 0xf6, 0xf9, 0xe5, 0xfe, 0xdc, 0xe2, 0xf1, 0x13,
  0xd4, 0x0e, 0x20, 0x09, 0xea, 0xdc, 0xf2, 0x2b, 0x11, 0x15, 0xef, 0xf9,
  0xb6, 0x15, 0x05, 0xff, 0xde, 0xdc, 0xbf, 0xe3, 0xc4, 0x12, 0x02, 0xed,
  0x0c, 0xd6, 0xe1, 0x10, 0x02, 0x1d, 0xe3, 0x06, 0xd5, 0x0c, 0xf7, 0x05,
  0xd6, 0xe4, 0xd8, 0xde, 0xd3, 0xf7, 0xf1, 0xf6, 0x0b, 0xc7, 0xf0, 0x13,
  0xdd, 0x0f, 0x1d, 0xf9, 0xdb, 0x09, 0x00, 0x10, 0xd6, 0xfc, 0xe4, 0xcc,
  0xee, 0xe2, 0xe8, 0xf7, 0x14, 0xb9, 0xec, 0xf3, 0xf5, 0xf9, 0x00, 0x01,
  0xd8, 0xeb, 0xef, 0xf1, 0xf1, 0x00, 0xcf, 0xea, 0xde, 0xcb, 0xdf, 0x0f,
  0x12, 0xee, 0xfa, 0xfb, 0x0d, 0x19, 0x25, 0xef, 0xde, 0x0f, 0x0d, 0xfe,
  0xf3, 0x0c, 0x1a, 0xf6, 0xf8, 0xfa, 0xf2, 0x09, 0x22, 0x09, 0x01, 0xda,
  0x15, 0x39, 0x09, 0xf4, 0x18, 0xdf, 0x06, 0x0f, 0xfb, 0x12, 0x2e, 0x1a,
  0x1c, 0x11, 0x02, 0x0f, 0x08, 0x14, 0x00, 0xf7, 0x0e, 0xe2, 0x05, 0xf6,
  0x05, 0xf7, 0x06, 0x04, 0x11, 0x04, 0xfc, 0xf3, 0x06, 0x03, 0xe7, 0xe4,
  0xf1, 0x04, 0x00, 0xd7, 0xe7, 0xd9, 0x10, 0xf6, 0x05, 0x0b, 0xe0, 0xe8,
  0xfb, 0x04, 0x17, 0xfd, 0x07, 0xed, 0xf6, 0x00, 0xe8, 0x04, 0x15, 0xc8,
  0xf9, 0xe3, 0x07, 0xfc, 0x18, 0x0b, 0x01, 0x01, 0x18, 0xfa, 0x02, 0x10,
  0x1b, 0x02, 0xf2, 0x10, 0xf9, 0x16, 0xcb, 0xe7, 0x08, 0xb9, 0x2f, 0x0b,
  0xf5, 0x05, 0x38, 0xe7, 0xf7, 0x09, 0x0d, 0x13, 0xfe, 0x07, 0x15, 0xc9,
  0xeb, 0x06, 0x43, 0xe7, 0xff, 0x1e, 0x0f, 0x02, 0x07, 0x17, 0x0b, 0x1f,
  0x1b, 0x03, 0xf6, 0xf9, 0xdc, 0x0f, 0x03, 0x03, 0xfc, 0x01, 0x0f, 0xf9,
  0xfe, 0x16, 0x0e, 0x05, 0xd6, 0x06, 0x03, 0x04, 0xfc, 0xff, 0xe6, 0xee,
  0xfb, 0x03, 0x02, 0xf5, 0x06, 0xff, 0x30, 0x01, 0x08, 0x13, 0xed, 0xfb,
  0x03, 0x0b, 0x02, 0xfc, 0xea, 0xf8, 0xfd, 0xf7, 0xf2, 0x0c, 0xf8, 0xfc,
  0xfa, 0xf4, 0xf4, 0x19, 0xfe, 0x0b, 0xf6, 0x0a, 0x12, 0xf1, 0xed, 0x0a,
  0xe5, 0xf5, 0xf5, 0x15, 0xf8, 0x00, 0xfe, 0x0e, 0xf6, 0xe8, 0xfb, 0x0e,
  0x04, 0x02, 0xeb, 0x13, 0x01, 0xe9, 0x03, 0x04, 0xf2, 0xf5, 0xf1, 0x1f,
  0xfc, 0x16, 0x1a, 0xfd, 0xf1, 0x01, 0xeb, 0x31, 0x0b, 0x05, 0x07, 0xf7,
  0x06, 0x13, 0x00, 0xf8, 0xf4, 0xf2, 0x03, 0x19, 0xf8, 0x15, 0x1c, 0xe9,
  0x03, 0x0e, 0x05, 0x18, 0xfb, 0x01, 0x00, 0x06, 0xf9, 0x11, 0x0e, 0xff,
  0xff, 0xf5, 0x07, 0x08, 0x00, 0x22, 0x13, 0xe1, 0x0a, 0xff, 0xfa, 0x11,
  0x0d, 0xf7, 0x09, 0xf2, 0x10, 0xf7, 0x04, 0x16, 0xf0, 0xfc, 0xfd, 0x01,
  0xf9, 0x02, 0x04, 0xfb, 0x0c, 0xfa, 0xe4, 0xfa, 0x0d, 0xf0, 0x07, 0xf7,
  0x08, 0xfa, 0x11, 0x03, 0xfe, 0x16, 0x00, 0xf3, 0x01, 0x00, 0x0d, 0x11,
  0x19, 0x04, 0xf9, 0x18, 0x0f, 0x0d, 0xfb, 0xee, 0xf1, 0xe9, 0x0d, 0x10,
  0x06, 0x0c, 0xfe, 0xfe, 0xfa, 0x06, 0xf2, 0xff, 0x0b, 0x0d, 0xfc, 0xfc,
  0x07, 0x0e, 0xec, 0x01, 0xfd, 0xf0, 0xf3, 0xf8, 0x09, 0x0b, 0x0b, 0xdb,
  0x0f, 0xe4, 0xe3, 0xea, 0xff, 0x0b, 0xf7, 0xfe, 0xf6, 0x05, 0xf6, 0xfa,
  0x13, 0x0e, 0xff, 0x0d, 0xfa, 0xfb, 0x0c, 0x1a, 0x02, 0xdb, 0xd6, 0xfd,
  0x1d, 0x05, 0xdb, 0x1c, 0xe8, 0xe3, 0x0b, 0xef, 0x1a, 0xfe, 0x01, 0xff,
  0xe5, 0xf2, 0xf4, 0x0e, 0x0a, 0xf6, 0xff, 0x01, 0x11, 0xf1, 0xe7, 0x19,
  0xdc, 0xf3, 0xf7, 0x07, 0xeb, 0x15, 0x03, 0x11, 0xf9, 0xf5, 0xfe, 0xed,
  0xf2, 0x07, 0xf5, 0xde, 0x23, 0xee, 0xec, 0x17, 0xff, 0xfc, 0x02, 0xe7,
  0x07, 0x0e, 0x0b, 0x03, 0xf2, 0x0d, 0xfb, 0xe1, 0xf2, 0xf0, 0xe0, 0xd9,
  0x17, 0xe4, 0xf3, 0x18, 0x12, 0x1b, 0x04, 0x01, 0xf6, 0x11, 0x05, 0x18,
  0x08, 0xf7, 0x0b, 0xf8, 0xfd, 0xdd, 0xdc, 0x0b, 0x0c, 0x01, 0x0a, 0x1a,
  0x1c, 0x05, 0x06, 0x07, 0xe7, 0x21, 0x12, 0x18, 0x0f, 0x18, 0x0b, 0xf5,
  0xf7, 0xd4, 0xda, 0x04, 0x21, 0xff, 0x05, 0x20, 0xd4, 0x29, 0xf3, 0x08,
  0x12, 0x05, 0xd6, 0xd8, 0xeb, 0xcc, 0xfe, 0x0a, 0xef, 0xfe, 0xf5, 0x1d,
  0xdc, 0xf0, 0x22, 0x17, 0xe2, 0x12, 0xf0, 0x01, 0x21, 0x15, 0xf4, 0x17,
  0xeb, 0xe4, 0xec, 0xfa, 0xf1, 0xf8, 0x17, 0x16, 0x08, 0xe0, 0xf8, 0x3e,
  0xfa, 0x0a, 0x14, 0x09, 0xf5, 0x02, 0x14, 0x0d, 0xe9, 0xe8, 0xf4, 0xe7,
  0xf1, 0x1e, 0x0b, 0xfb, 0x17, 0xf4, 0x24, 0x05, 0xf8, 0x2e, 0x0e, 0x07,
  0xea, 0x2a, 0x0d, 0xf2, 0x07, 0x05, 0x01, 0xf1, 0xfc, 0xfc, 0xe9, 0xdf,
  0xfa, 0x0b, 0xf9, 0x08, 0xf0, 0x4f, 0x0c, 0x08, 0xf7, 0x14, 0x03, 0xf8,
  0xf2, 0xe5, 0x0b, 0xd8, 0xf7, 0xca, 0xd4, 0xef, 0x04, 0xfe, 0xfa, 0x16,
  0x00, 0x00, 0xf2, 0xfc, 0x09, 0xe8, 0xca, 0xdd, 0xe0, 0xe9, 0xfc, 0x08,
  0x05, 0xcd, 0xe5, 0x03, 0xe6, 0xf5, 0xb3, 0xee, 0x05, 0xf5, 0xdc, 0x0f,
  0xd5, 0xf3, 0xe8, 0xe7, 0xf6, 0xe5, 0xf3, 0xf1, 0xea, 0xe8, 0xed, 0xf3,
  0xf6, 0xf2, 0x03, 0x31, 0x08, 0xff, 0x25, 0x1f, 0xdf, 0xee, 0x12, 0x20,
  0x07, 0xfa, 0xfc, 0xec, 0xf3, 0x0b, 0xea, 0x01, 0x23, 0xfe, 0x41, 0x22,
  0xfa, 0x2c, 0x08, 0x03, 0x0d, 0xd4, 0x0d, 0xff, 0x10, 0xfe, 0x16, 0x06,
  0xfa, 0xf3, 0xf6, 0x15, 0xfc, 0xfc, 0x03, 0xf9, 0x04, 0xfb, 0x12, 0x0d,
  0x1a, 0x1a, 0xf2, 0xfe, 0xf5, 0x02, 0x17, 0xfa, 0xf8, 0xf4, 0xfe, 0x00,
  0x00, 0x08, 0xfd, 0xd7, 0x01, 0xf4, 0xf2, 0xfb, 0xfd, 0x02, 0xe8, 0xed,
  0x0c, 0x0b, 0xf8, 0x1e, 0x05, 0x0e, 0x04, 0x0d, 0xd6, 0x05, 0x0c, 0xf8,
  0xfc, 0x0f, 0xe9, 0x05, 0x0a, 0xfa, 0xfe, 0x16, 0x11, 0x03, 0xf8, 0x02,
  0xfa, 0x00, 0xff, 0x14, 0xe0, 0xf3, 0x21, 0xf0, 0x0e, 0x15, 0x0f, 0x0c,
  0xe9, 0xdc, 0xf1, 0x14, 0x02, 0x07, 0x01, 0xf9, 0xf7, 0xf9, 0x04, 0xf3,
  0x36, 0x09, 0x06, 0x0e, 0x09, 0xe2, 0xe3, 0xfc, 0x08, 0xec, 0xe4, 0xdd,
  0x03, 0xfe, 0x24, 0x07, 0x0c, 0xfc, 0x01, 0xe2, 0xe7, 0x16, 0xec, 0xed,
  0x08, 0x05, 0x01, 0x01, 0x1e, 0xf8, 0xeb, 0xf8, 0xeb, 0xf3, 0xf7, 0x06,
  0xfc, 0x04, 0x01, 0xef, 0xee, 0x13, 0xf4, 0xf3, 0x04, 0xfc, 0x06, 0x06,
  0x1c, 0xf9, 0xe1, 0xef, 0x00, 0xfe, 0x10, 0xfd, 0x05, 0x0f, 0x04, 0x05,
  0xe6, 0x00, 0xe3, 0xe9, 0xff, 0xea, 0xe7, 0x0c, 0x13, 0x08, 0xe6, 0xfc,
  0x0d, 0xf4, 0xfe, 0x00, 0x09, 0x02, 0x04, 0xff, 0xf4, 0x03, 0x08, 0x05,
  0xf6, 0x04, 0xf6, 0x0b, 0xf8, 0x11, 0xfc, 0x0c, 0xf5, 0xf0, 0xf1, 0xf8,
  0x04, 0x01, 0xf9, 0x08, 0xf8, 0x00, 0xfb, 0x16, 0xfb, 0x06, 0x09, 0x0d,
  0xf4, 0x04, 0x20, 0x28, 0xfd, 0xf5, 0xf8, 0x06, 0xff, 0xf3, 0x0a, 0x0d,
  0x1b, 0xec, 0x21, 0x11, 0x00, 0xe4, 0x17, 0x0e, 0x07, 0xee, 0x17, 0x10,
  0xec, 0x03, 0x12, 0x0f, 0x04, 0xfd, 0x0f, 0x11, 0x28, 0xf2, 0x02, 0xf0,
  0x15, 0xe2, 0xf5, 0x06, 0xf7, 0xe1, 0x11, 0xec, 0x00, 0x1a, 0x07, 0x03,
  0x04, 0x0d, 0x0b, 0x09, 0x0b, 0x0c, 0xeb, 0xe5, 0x26, 0xf7, 0xf6, 0x03,
  0xf9, 0xfb, 0x01, 0xf9, 0x12, 0x16, 0x00, 0xf3, 0x01, 0x0b, 0x15, 0xfd,
  0xf3, 0x11, 0xf5, 0xfe, 0x20, 0x09, 0x05, 0x04, 0xfd, 0x05, 0x18, 0x1d,
  0x18, 0x16, 0xff, 0xeb, 0x00, 0x07, 0x0d, 0xfa, 0xfc, 0x0d, 0x1e, 0x22,
  0xf4, 0xfa, 0x17, 0xf1, 0x24, 0x12, 0x21, 0x2b, 0x03, 0xf7, 0x15, 0xf6,
  0x12, 0x14, 0x0a, 0x12, 0x10, 0x15, 0x24, 0x1a, 0xef, 0x0b, 0x06, 0xfd,
  0x35, 0x32, 0x0e, 0x03, 0x0b, 0xe8, 0x1b, 0x04, 0x19, 0x18, 0x0f, 0x19,
  0x09, 0x12, 0x16, 0x0a, 0x01, 0x24, 0x02, 0x12, 0x09, 0x31, 0x0b, 0x25,
  0x01, 0xed, 0x0b, 0x03, 0xf9, 0x2a, 0x1b, 0x06, 0xfc, 0xec, 0x2c, 0x04,
  0x0b, 0x20, 0x0e, 0xfe, 0x14, 0x11, 0xfa, 0xf8, 0xe6, 0xe3, 0x0d, 0x15,
  0x01, 0x20, 0x25, 0x17, 0xff, 0xf3, 0xf6, 0x0f, 0xf5, 0x08, 0x09, 0xf9,
  0x07, 0x12, 0x06, 0x18, 0xf0, 0xe7, 0xf3, 0x0c, 0xf8, 0x14, 0x0c, 0xfb,
  0x0c, 0xf2, 0x02, 0x14, 0xf6, 0x0b, 0xfb, 0xfe, 0xe8, 0xee, 0x06, 0xfd,
  0xd5, 0x09, 0xf7, 0x01, 0xf5, 0x10, 0x0c, 0xf6, 0x29, 0xff, 0xfc, 0x19,
  0x13, 0x00, 0x0f, 0x13, 0xfa, 0xf2, 0x0b, 0x0e, 0xf4, 0x14, 0x10, 0x07,
  0xff, 0x0c, 0x05, 0xfa, 0x0c, 0x17, 0xff, 0xf0, 0x01, 0xda, 0xff, 0xfc,
  0x45, 0x17, 0xd4, 0xca, 0x36, 0x17, 0x06, 0x2c, 0x32, 0xea, 0xe3, 0x3a,
  0xfe, 0x19, 0xfc, 0xd5, 0x1b, 0xc9, 0xf2, 0xf3, 0x35, 0xff, 0xdc, 0xe4,
  0x25, 0x29, 0x0e, 0x0c, 0x1b, 0xfa, 0x04, 0x1f, 0xe8, 0x19, 0x0f, 0xee,
  0x18, 0xeb, 0x05, 0xf7, 0x26, 0x0f, 0x18, 0x1d, 0x17, 0xfe, 0x17, 0x17,
  0x18, 0xf9, 0x0e, 0x0d, 0xf0, 0x45, 0x27, 0x08, 0x1c, 0xf3, 0xf7, 0x09,
  0x43, 0x22, 0x18, 0x04, 0xee, 0x02, 0x15, 0x2f, 0x0f, 0x09, 0x12, 0x1d,
  0x15, 0x18, 0xc7, 0x03, 0x16, 0xd5, 0xd9, 0x02, 0x17, 0xef, 0xe8, 0xe2,
  0xeb, 0xd9, 0xfc, 0x2d, 0xf4, 0x25, 0x2f, 0x07, 0xf3, 0xf6, 0xd4, 0xed,
  0x13, 0xc5, 0xda, 0x02, 0xfa, 0xae, 0xf9, 0xe3, 0xb0, 0xcc, 0xcb, 0x0f,
  0xd4, 0x30, 0x15, 0xfd, 0xe6, 0xfc, 0xc8, 0xfb, 0xde, 0x1f, 0xdd, 0x06,
  0xb9, 0xc4, 0x01, 0xef, 0xb1, 0xc3, 0xdd, 0xf3, 0xb0, 0x1a, 0x1a, 0xd0,
  0xdf, 0xe5, 0xea, 0xf2, 0xe6, 0x16, 0xee, 0xef, 0xc1, 0xfc, 0xe5, 0x07,
  0xca, 0xba, 0xc8, 0xe5, 0xa2, 0xf8, 0x0d, 0xe3, 0xde, 0xcd, 0x00, 0x05,
  0xe0, 0x16, 0x08, 0xf4, 0xb4, 0xeb, 0x04, 0x0e, 0xd4, 0xe9, 0xfd, 0xfb,
  0xd7, 0xfa, 0xed, 0x0f, 0xfc, 0xf0, 0x01, 0x18, 0xfb, 0x01, 0x01, 0xf6,
  0x0e, 0xbb, 0x06, 0x12, 0xeb, 0xf6, 0xfb, 0xed, 0x01, 0x03, 0xfb, 0xf6,
  0x0d, 0xfb, 0x05, 0xfc, 0xfd, 0x0a, 0x07, 0xef, 0x00, 0xf4, 0x09, 0x08,
  0x02, 0x03, 0x05, 0x05, 0x0a, 0x00, 0x02, 0xfe, 0xe6, 0x02, 0xf8, 0xc8,
  0x0a, 0x2a, 0xb8, 0xe9, 0x0c, 0x14, 0x9b, 0xf6, 0x14, 0x0f, 0xfc, 0xfc,
  0xfb, 0x02, 0x0b, 0xfe, 0xcb, 0x09, 0xfe, 0xca, 0xfd, 0x01, 0xbe, 0x01,
  0xfb, 0x15, 0xdc, 0x00, 0x0a, 0xe7, 0xfa, 0x06, 0xfb, 0xf1, 0xea, 0xf8,
  0xe0, 0xe2, 0x13, 0x06, 0xf3, 0x0f, 0xcb, 0xf8, 0xde, 0xea, 0xe4, 0xe5,
  0x1f, 0x18, 0x02, 0xd3, 0x03, 0xf2, 0xfd, 0xf9, 0xe0, 0x0b, 0xfb, 0xe8,
  0xf5, 0xf2, 0xd6, 0x04, 0x08, 0xfa, 0xea, 0xed, 0xfa, 0xdf, 0xfa, 0xfb,
  0x01, 0xfd, 0xf2, 0x0b, 0xdf, 0xef, 0xcd, 0xe7, 0xe6, 0xe8, 0xe2, 0xf4,
  0xf8, 0xf7, 0xed, 0xf8, 0xfb, 0xf0, 0xdc, 0xec, 0xf7, 0xff, 0xf1, 0xf8,
  0xee, 0xd4, 0xee, 0xe7, 0xcc, 0xfe, 0xdd, 0xe8, 0xff, 0xf4, 0xe6, 0xec,
  0xee, 0xea, 0x04, 0xe6, 0xe1, 0xf6, 0xf9, 0x13, 0xf3, 0xc9, 0xdb, 0xe0,
  0xe4, 0xf7, 0xe0, 0xe0, 0xd4, 0x04, 0xe9, 0xfb, 0xf1, 0xf5, 0xea, 0xee,
  0xd8, 0xf8, 0x02, 0x00, 0xf0, 0xd0, 0xf1, 0xf4, 0xf0, 0x0d, 0x18, 0xef,
  0xcd, 0x0b, 0x09, 0x1c, 0xf8, 0xee, 0xe7, 0xfa, 0xee, 0xf2, 0xf3, 0xdf,
  0xfc, 0xf2, 0x13, 0xfa, 0x02, 0xe1, 0x0b, 0xf9, 0x15, 0x08, 0x05, 0x08,
  0xfc, 0xf2, 0x06, 0x10, 0x04, 0x0c, 0x01, 0x09, 0x10, 0xec, 0xe3, 0xf9,
  0xf0, 0xed, 0x12, 0xf6, 0x0f, 0x13, 0x13, 0x00, 0x01, 0xfd, 0x07, 0x15,
  0x04, 0x12, 0x0e, 0x19, 0x11, 0x03, 0x13, 0xca, 0xde, 0x07, 0x0b, 0xfc,
  0x0b, 0x10, 0xfc, 0xee, 0x0a, 0x05, 0xef, 0x00, 0xfd, 0x11, 0x0d, 0x1c,
  0xf2, 0xee, 0x0c, 0xed, 0xeb, 0x0d, 0x15, 0x05, 0x00, 0xeb, 0xfc, 0x06,
  0xf0, 0xe7, 0xef, 0xe5, 0xf7, 0xf1, 0x03, 0xe2, 0xdd, 0xf4, 0xff, 0x09,
  0xe1, 0xf8, 0xef, 0xfe, 0x04, 0xf7, 0xee, 0xfb, 0xfc, 0xd7, 0x00, 0xe7,
  0xf3, 0xf1, 0xef, 0xf1, 0xff, 0x04, 0xf8, 0xf2, 0xd4, 0xe6, 0xe5, 0xf2,
  0xfd, 0x01, 0xf5, 0xec, 0xd7, 0xd9, 0xf8, 0xfe, 0xdd, 0xee, 0xfc, 0x09,
  0xff, 0xc6, 0xfb, 0x1d, 0xdd, 0xf7, 0x24, 0xfc, 0xce, 0xe1, 0x02, 0xff,
  0xb6, 0xd7, 0xe4, 0xf6, 0xe1, 0xf3, 0x02, 0xf6, 0x03, 0xe9, 0x10, 0x18,
  0xca, 0x0a, 0xf7, 0xfe, 0xef, 0xf0, 0xf8, 0x08, 0xf0, 0xea, 0x10, 0xd9,
  0x00, 0x07, 0x16, 0xee, 0xeb, 0x08, 0x10, 0xfe, 0xd6, 0x06, 0x0b, 0xf2,
  0x0c, 0xe0, 0xfa, 0x04, 0xe1, 0xff, 0x0e, 0xe4, 0x01, 0x16, 0x1c, 0xf4,
  0xfb, 0xf9, 0x04, 0x0b, 0xe4, 0x01, 0x0c, 0xfb, 0xf8, 0xf6, 0xfa, 0x0c,
  0xfe, 0xf6, 0x0d, 0xe4, 0xf7, 0x0f, 0x0a, 0xff, 0xfb, 0x02, 0x16, 0x01,
  0xf0, 0x07, 0xfc, 0xf5, 0x04, 0xe8, 0x07, 0x00, 0xfe, 0x06, 0xe8, 0xf3,
  0xf9, 0x06, 0x0a, 0x02, 0x02, 0xf5, 0x09, 0x03, 0xf6, 0xfc, 0x03, 0x07,
  0x05, 0xf3, 0xf1, 0x0b, 0x04, 0xf8, 0xfe, 0x0a, 0x00, 0xf0, 0x08, 0x02,
  0x02, 0x04, 0x05, 0xf1, 0x01, 0xf9, 0xef, 0xfc, 0xfc, 0xff, 0xf7, 0xf9,
  0xf9, 0x08, 0x0b, 0xf8, 0xf8, 0x0c, 0x04, 0xf7, 0xf8, 0xf9, 0xfa, 0xff,
  0x00, 0x05, 0xef, 0xf4, 0xf9, 0xf2, 0x04, 0xf6, 0x04, 0x0a, 0xfb, 0x03,
  0xfc, 0x02, 0xfa, 0xfa, 0xfa, 0xf8, 0x02, 0x03, 0xf5, 0x08, 0xfe, 0xff,
  0xf9, 0x08, 0xf1, 0xfd, 0x03, 0x0b, 0xf8, 0x02, 0xf6, 0xff, 0xf6, 0xf1,
  0xf5, 0xf7, 0xf8, 0xff, 0x07, 0x04, 0xfa, 0x01, 0xfe, 0xf6, 0x07, 0xfe,
  0x02, 0xfd, 0xfb, 0xf4, 0xfb, 0xf9, 0x04, 0xfb, 0xf9, 0x09, 0xf8, 0xff,
  0xf9, 0xfa, 0xf8, 0xf6, 0x09, 0xf7, 0x05, 0x04, 0xfb, 0x04, 0xf9, 0xfa,
  0xfd, 0xf8, 0xf8, 0x09, 0xfe, 0x07, 0x00, 0x05, 0xff, 0xf1, 0x04, 0x01,
  0xfa, 0xfb, 0x0b, 0xfc, 0xfa, 0x03, 0xf4, 0xf0, 0x06, 0xf4, 0x08, 0x02,
  0xf9, 0x03, 0xf9, 0x04, 0x05, 0x0a, 0xf8, 0xf4, 0xfb, 0xf9, 0xf3, 0xfd,
  0xfc, 0xf7, 0xf5, 0xf9, 0x09, 0xfd, 0xf9, 0x00, 0xff, 0xfe, 0x0c, 0xf8,
  0xfc, 0xf9, 0xfa, 0xfe, 0x02, 0xfc, 0x00, 0xf6, 0xf9, 0xf3, 0x03, 0xf9,
  0x08, 0x00, 0x01, 0xf7, 0xfd, 0x04, 0xfd, 0xf3, 0xfc, 0xf5, 0x09, 0xf9,
  0xfd, 0xfa, 0xfb, 0x06, 0xf8, 0xfb, 0xf4, 0xf3, 0xf5, 0x00, 0xfe, 0xf6,
  0xfe, 0xf2, 0xfc, 0x04, 0xf0, 0x0a, 0x01, 0xf8, 0xf9, 0x04, 0x0a, 0xfe,
  0xff, 0xff, 0xf5, 0x04, 0xff, 0xfd, 0xf0, 0x01, 0x05, 0xfc, 0xf5, 0xf7,
  0xf0, 0xf7, 0x02, 0xf5, 0xfa, 0x05, 0x0a, 0x03, 0xf8, 0x05, 0x08, 0xfc,
  0xff, 0x05, 0x04, 0x0a, 0x0b, 0x00, 0x01, 0x00, 0xf1, 0x07, 0x09, 0xfe,
  0xf5, 0xf9, 0xf6, 0x03, 0xfa, 0xf5, 0x02, 0xf2, 0x09, 0x05, 0xf6, 0x02,
  0xfd, 0x01, 0xf5, 0xf4, 0xf2, 0xff, 0x07, 0x07, 0xf6, 0xf7, 0xf9, 0xf1,
  0xf7, 0xf9, 0xfb, 0x0b, 0x0a, 0xf5, 0x04, 0xff, 0xf8, 0xfc, 0x05, 0x04,
  0x0b, 0x05, 0xff, 0xf8, 0xfb, 0xf5, 0xfe, 0xf8, 0xf4, 0xff, 0xff, 0x08,
  0xf6, 0x00, 0xf6, 0x04, 0xfb, 0xfa, 0xf9, 0xf8, 0xfe, 0xfb, 0xfd, 0xfe,
  0x08, 0xff, 0xf6, 0x03, 0x04, 0xfc, 0xff, 0xf4, 0x02, 0xf6, 0xfd, 0xfb,
  0xff, 0x00, 0x00, 0x01, 0x09, 0x0b, 0xf5, 0x04, 0x09, 0x01, 0xf8, 0xff,
  0x06, 0x07, 0x07, 0xf7, 0x06, 0xff, 0xf3, 0x05, 0xfb, 0x02, 0xf8, 0x08,
  0xf7, 0xfc, 0xf9, 0x0c, 0x08, 0xf9, 0xff, 0x0b, 0xf3, 0xfc, 0xf1, 0x0a,
  0xf4, 0x06, 0xf4, 0xfd, 0xf1, 0x04, 0x05, 0xf6, 0xfe, 0xf4, 0xfb, 0x03,
  0x07, 0x04, 0xf4, 0xf5, 0x02, 0x00, 0xfa, 0x05, 0xf6, 0x02, 0xf9, 0xf8,
  0xfa, 0xfe, 0x09, 0xfe, 0xf1, 0x08, 0x05, 0x05, 0xf9, 0xff, 0x00, 0xfe,
  0x04, 0x07, 0x07, 0x0a, 0x02, 0xff, 0xf8, 0xfb, 0x04, 0xf1, 0x02, 0xf6,
  0xf6, 0xfa, 0xf9, 0x00, 0x0b, 0xff, 0xf3, 0x01, 0x08, 0xf7, 0xf1, 0xff,
  0x05, 0x00, 0x01, 0xfb, 0x0b, 0xfe, 0xf6, 0x08, 0xf2, 0x07, 0xf1, 0x06,
  0x04, 0x06, 0xfd, 0x01, 0xf7, 0xf7, 0xf5, 0x05, 0x01, 0x0a, 0x0a, 0x06,
  0xff, 0xff, 0xff, 0xf5, 0xf4, 0xf9, 0x09, 0xff, 0xf7, 0x01, 0xf9, 0x06,
  0x02, 0xf7, 0xf7, 0xfa, 0xfb, 0xf8, 0x02, 0xf7, 0xfc, 0xfb, 0xf4, 0x0b,
  0x02, 0x00, 0x02, 0x07, 0xf8, 0xf8, 0xf4, 0xf6, 0x01, 0xf6, 0xf9, 0x08,
  0x03, 0x0a, 0x01, 0x02, 0xf7, 0x01, 0x09, 0xf7, 0x06, 0xfa, 0x0a, 0xf6,
  0xf7, 0x07, 0xfc, 0xff, 0xf8, 0xf4, 0xf8, 0xf3, 0xf8, 0xf8, 0xfa, 0xfd,
  0x02, 0x01, 0x04, 0xf8, 0xf6, 0x02, 0xfb, 0x00, 0xf5, 0xf4, 0x01, 0x00,
  0xff, 0xfe, 0xf0, 0xf0, 0x00, 0xfb, 0xfe, 0xfc, 0x0b, 0xf1, 0xfc, 0xfa,
  0x01, 0xff, 0x03, 0xf6, 0xfc, 0xf2, 0x02, 0xfb, 0x04, 0xf7, 0xf9, 0x05,
  0x07, 0xf9, 0xfd, 0xf8, 0xfc, 0x06, 0xf5, 0xf5, 0xf8, 0xfb, 0x03, 0x04,
  0xf6, 0xf7, 0xfb, 0x07, 0xf2, 0xf5, 0x03, 0xf5, 0x05, 0xfb, 0xff, 0x06,
  0x03, 0x07, 0xf7, 0x05, 0xfc, 0xf2, 0xf8, 0x06, 0xf2, 0x06, 0xfb, 0xf6,
  0x01, 0xf7, 0xf6, 0x06, 0x08, 0xfd, 0x02, 0xf8, 0x04, 0xf4, 0xfa, 0xf9,
  0xf6, 0xf6, 0x06, 0xfd, 0xf4, 0xf5, 0xf8, 0x00, 0x05, 0x00, 0xf3, 0xf9,
  0x08, 0x00, 0xf4, 0x04, 0xf9, 0xfe, 0x0a, 0xf8, 0xff, 0x00, 0x1a, 0x05,
  0xde, 0xf1, 0x18, 0x03, 0x04, 0x08, 0xfb, 0xfc, 0xfe, 0xed, 0xfc, 0xe8,
  0x1c, 0x06, 0x21, 0x15, 0x00, 0x1c, 0x10, 0x1c, 0xf6, 0x06, 0x24, 0x21,
  0xf6, 0x09, 0x18, 0x11, 0x0e, 0xf8, 0x0f, 0xf5, 0x22, 0x13, 0x11, 0xfc,
  0x17, 0x03, 0x18, 0x04, 0xfc, 0xf9, 0x0d, 0xff, 0x1c, 0x24, 0x1d, 0x0b,
  0x1d, 0x05, 0x04, 0xf9, 0x1b, 0x14, 0xe8, 0xf7, 0x19, 0xf7, 0x06, 0xf8,
  0x20, 0xe1, 0xed, 0xed, 0x14, 0x2d, 0x26, 0x1b, 0x3c, 0x09, 0x0f, 0x17,
  0xfb, 0x28, 0xf9, 0xd4, 0x0a, 0x00, 0xef, 0x0d, 0x40, 0x09, 0xe7, 0xfb,
  0x2d, 0x15, 0x09, 0x2b, 0x27, 0x1a, 0x0a, 0x1b, 0xf6, 0x33, 0xdc, 0xfe,
  0x19, 0xf6, 0xf3, 0xfc, 0x2b, 0xf1, 0xed, 0xe6, 0x09, 0xfe, 0x0e, 0x25,
  0x07, 0x19, 0x0a, 0x1a, 0x00, 0x08, 0xcc, 0xe6, 0x19, 0xe6, 0xf8, 0xfe,
  0x23, 0xe9, 0xf6, 0xfb, 0xe9, 0xfe, 0x16, 0x17, 0x08, 0x22, 0x14, 0x11,
  0xe8, 0x20, 0xfa, 0xfe, 0x1c, 0xef, 0xf9, 0xff, 0x2f, 0xaf, 0x09, 0xee,
  0xe0, 0xf6, 0x00, 0x19, 0x0a, 0x1b, 0x28, 0x10, 0xe7, 0x1a, 0xf7, 0x14,
  0x00, 0xd0, 0xee, 0x11, 0xf2, 0x11, 0xfa, 0xf6, 0x2f, 0xf4, 0xfa, 0xec,
  0xd8, 0x03, 0x0c, 0x0a, 0xf8, 0xf1, 0x0f, 0x02, 0xfb, 0x15, 0x03, 0x05,
  0xe2, 0x33, 0x0e, 0xf9, 0xf2, 0xf5, 0x07, 0xff, 0x04, 0x0c, 0x05, 0x0a,
  0x0d, 0x05, 0xff, 0xf5, 0x01, 0x1e, 0xfa, 0xf1, 0x0f, 0xf3, 0x12, 0x02,
  0x12, 0x04, 0x07, 0xe4, 0x10, 0x0c, 0xfe, 0x01, 0xde, 0x08, 0x15, 0x1e,
  0xf9, 0xe9, 0x17, 0x04, 0x10, 0x09, 0xee, 0x1d, 0xfc, 0xfb, 0x17, 0x08,
  0xf8, 0x07, 0x0d, 0x0d, 0x11, 0x07, 0x06, 0x19, 0xfb, 0x20, 0xea, 0xfb,
  0xfb, 0xdc, 0xec, 0x18, 0xfe, 0x07, 0xfa, 0xed, 0xe5, 0xf7, 0xff, 0x1b,
  0xfb, 0xf0, 0xdb, 0xe3, 0x05, 0xf1, 0x0c, 0x00, 0xfe, 0xf3, 0x0a, 0xff,
  0xf0, 0x00, 0xf4, 0xfc, 0x0e, 0xf9, 0xec, 0xe0, 0x0a, 0xf2, 0xf8, 0x2a,
  0xf7, 0xfb, 0x05, 0xfa, 0x11, 0x07, 0x11, 0xff, 0xfa, 0xfa, 0x00, 0xf4,
  0xfa, 0x09, 0x02, 0xf7, 0x12, 0x04, 0x04, 0x20, 0xed, 0xf3, 0x2d, 0xfb,
  0x01, 0xe9, 0x11, 0x01, 0xd7, 0x03, 0xff, 0x0b, 0x0c, 0xfc, 0xf3, 0xe4,
  0x1b, 0xf2, 0x13, 0x15, 0x01, 0xdd, 0x01, 0x06, 0xff, 0xff, 0x0f, 0xfc,
  0x08, 0x16, 0xfc, 0x07, 0x0f, 0x00, 0x01, 0xfd, 0x1d, 0x0b, 0x0a, 0x04,
  0x06, 0x06, 0x16, 0xf3, 0xf9, 0x1c, 0x19, 0xff, 0x11, 0x0a, 0x11, 0xf4,
  0x15, 0xfa, 0xfa, 0x04, 0x0c, 0x1c, 0x2a, 0xe5, 0xfc, 0x1c, 0x08, 0x0d,
  0x15, 0x10, 0x05, 0xfe, 0x0b, 0xfc, 0x07, 0xe6, 0x1e, 0xee, 0xe7, 0x16,
  0x04, 0x10, 0x0e, 0xfd, 0xf8, 0x0b, 0xfc, 0x0d, 0x2a, 0x13, 0x08, 0x13,
  0x06, 0xf7, 0x11, 0x02, 0x03, 0xf1, 0xef, 0x10, 0xf6, 0x01, 0x27, 0x28,
  0xfa, 0x25, 0x01, 0x00, 0xfa, 0x0c, 0x0d, 0x0c, 0xfb, 0x01, 0x01, 0x04,
  0x09, 0xfd, 0xf2, 0x00, 0xff, 0x0a, 0x0e, 0x32, 0xff, 0x04, 0x00, 0x0c,
  0xed, 0x0c, 0x02, 0xfd, 0x0a, 0xf6, 0xf8, 0xff, 0x05, 0xf2, 0xfc, 0xfb,
  0x15, 0x00, 0x0b, 0x0b, 0xf7, 0xf3, 0xe9, 0xff, 0xfe, 0x1d, 0xf7, 0xfd,
  0xfd, 0x0c, 0xf4, 0x0c, 0xf7, 0xfd, 0x0a, 0x02, 0x14, 0xfb, 0xf3, 0xfe,
  0xf8, 0x01, 0xfe, 0x08, 0xfd, 0x03, 0xf3, 0xf1, 0xff, 0x0d, 0x07, 0x1d,
  0x0c, 0x08, 0x0f, 0xfe, 0xfd, 0xfe, 0xec, 0xed, 0xf3, 0x00, 0xf1, 0xfb,
  0xfd, 0xe6, 0xff, 0xfa, 0x0c, 0x07, 0xf9, 0xfa, 0xf5, 0x08, 0x13, 0x0f,
  0xe0, 0x06, 0x0f, 0xd9, 0xfe, 0x1f, 0xe3, 0x05, 0x1c, 0x17, 0x06, 0xfb,
  0x09, 0xf4, 0xfa, 0x20, 0xfd, 0x08, 0x06, 0x18, 0xe1, 0x0a, 0x04, 0x00,
  0x15, 0x10, 0x02, 0xf9, 0x10, 0xfb, 0x16, 0x21, 0xf8, 0x08, 0xe4, 0x2f,
  0xff, 0x0e, 0x05, 0x20, 0xf3, 0xee, 0x20, 0x1e, 0xfe, 0x0f, 0x1a, 0xf0,
  0xf2, 0x03, 0x1a, 0x10, 0xee, 0xfc, 0x04, 0x05, 0xf8, 0xfc, 0x18, 0x12,
  0x06, 0x0f, 0x09, 0x12, 0xf5, 0x13, 0x04, 0x15, 0x03, 0xfa, 0x12, 0x02,
  0xf7, 0x02, 0x08, 0x0b, 0xeb, 0x14, 0x0f, 0xfe, 0x01, 0xfd, 0x10, 0x02,
  0x06, 0x0c, 0x00, 0x07, 0xf1, 0xfc, 0x03, 0xf6, 0xff, 0x06, 0x16, 0x21,
  0xf7, 0x1d, 0x24, 0x0b, 0xf6, 0x00, 0xff, 0xe4, 0x07, 0x12, 0x15, 0xfd,
  0xb5, 0xf6, 0x42, 0x4f, 0xcb, 0xe2, 0xe5, 0xcb, 0xe2, 0xeb, 0xe3, 0xad,
  0x24, 0xe2, 0xeb, 0x28, 0xf7, 0x09, 0x0d, 0xfe, 0xb8, 0xf2, 0x05, 0x22,
  0xd5, 0xe6, 0xfd, 0xca, 0xe8, 0xda, 0xda, 0xb7, 0x23, 0xea, 0x03, 0x18,
  0xf1, 0xf6, 0xf7, 0x0d, 0xe5, 0xf2, 0xf8, 0xfa, 0x04, 0x0b, 0xed, 0xe1,
  0xe6, 0xe9, 0xdb, 0xf2, 0xf8, 0xd5, 0xce, 0xf0, 0xd3, 0xf6, 0x0e, 0xfe,
  0xe5, 0xd5, 0xec, 0xed, 0xfe, 0xe6, 0x06, 0xec, 0xf3, 0xd2, 0xf5, 0x0b,
  0xd6, 0xf2, 0x28, 0xe6, 0xf6, 0xdc, 0xed, 0x04, 0x16, 0xf5, 0xfd, 0xea,
  0xf7, 0x02, 0xfd, 0x04, 0x1f, 0xe5, 0x00, 0xff, 0xdd, 0x0a, 0xe7, 0xdd,
  0xee, 0xeb, 0xf7, 0xf5, 0x1f, 0x1e, 0x00, 0xed, 0x16, 0x07, 0xfc, 0xfb,
  0x00, 0xf8, 0xf7, 0x03, 0xf9, 0xee, 0x14, 0x05, 0xf4, 0xeb, 0x0c, 0x06,
  0x17, 0xfd, 0xf1, 0xed, 0x0e, 0x0a, 0x07, 0xff, 0xfe, 0xf0, 0xf6, 0x15,
  0xec, 0x08, 0x07, 0x0e, 0x04, 0xdc, 0x02, 0x00, 0x13, 0xe9, 0x05, 0xfe,
  0xed, 0xf0, 0x12, 0x1f, 0x17, 0xfb, 0x0d, 0x14, 0x19, 0x00, 0xf7, 0x1c,
  0x04, 0x18, 0x07, 0xfc, 0x15, 0xf6, 0x16, 0xfe, 0xf8, 0x0e, 0x1d, 0x01,
  0x20, 0x18, 0x10, 0x07, 0xfd, 0x1c, 0x0c, 0xfc, 0x0c, 0x0c, 0x03, 0x03,
  0x14, 0xeb, 0x0b, 0x08, 0x16, 0x0a, 0xfd, 0x04, 0x04, 0x13, 0x05, 0xfc,
  0xf8, 0x11, 0xfe, 0xff, 0xed, 0xfb, 0xf4, 0xf8, 0xfa, 0xf5, 0xfc, 0xf7,
  0x0c, 0x06, 0xfa, 0x00, 0xf9, 0x02, 0xf5, 0xf1, 0xfe, 0x08, 0x03, 0x13,
  0xec, 0x03, 0x03, 0xfb, 0x05, 0xf4, 0x04, 0x08, 0x00, 0xf4, 0x0a, 0xfc,
  0xfb, 0x02, 0x04, 0x0a, 0x0c, 0xf2, 0xef, 0xff, 0xf7, 0xfa, 0xf4, 0xfa,
  0xf9, 0x12, 0x0e, 0x08, 0xfd, 0xfd, 0xfa, 0xf8, 0x02, 0x01, 0xf9, 0xf6,
  0x02, 0xe8, 0xf7, 0x07, 0xdc, 0x11, 0x0d, 0xf1, 0xf2, 0x17, 0x12, 0x21,
  0xfe, 0xf1, 0xe1, 0xed, 0xd9, 0xee, 0xec, 0xed, 0x18, 0xde, 0x24, 0x18,
  0xfa, 0xed, 0x05, 0x06, 0xdc, 0xf8, 0xf1, 0x05, 0xd4, 0xf8, 0xfc, 0x00,
  0xfb, 0xea, 0xe9, 0xe6, 0x1d, 0xf0, 0x06, 0x3e, 0x05, 0xf3, 0xfe, 0x03,
  0xff, 0xe9, 0xf6, 0xf6, 0xed, 0x03, 0x0b, 0x16, 0x03, 0xfb, 0x07, 0x22,
  0x0c, 0x03, 0xef, 0x32, 0x15, 0xef, 0xe7, 0xfa, 0xf4, 0xd5, 0xf6, 0xeb,
  0xfb, 0xf1, 0x06, 0x1b, 0x11, 0x01, 0x12, 0xf7, 0xf3, 0x07, 0xea, 0xff,
  0x0c, 0xcd, 0xe5, 0xf3, 0xf0, 0xd8, 0xe3, 0xf3, 0x02, 0xff, 0xfc, 0x19,
  0x0b, 0x17, 0x1e, 0xf3, 0xeb, 0x0d, 0xed, 0xfb, 0x15, 0xdc, 0xe1, 0xf5,
  0x00, 0xd3, 0xe3, 0xdb, 0xfc, 0x0d, 0x06, 0x00, 0xf4, 0x13, 0x1e, 0xec,
  0xfc, 0x1c, 0xd9, 0xe7, 0x0b, 0x0a, 0xe5, 0xf9, 0xf0, 0xf4, 0xe7, 0xe5,
  0x00, 0xfa, 0x0a, 0x0a, 0xfd, 0x28, 0x19, 0xd7, 0xf3, 0x0c, 0xe4, 0xeb,
  0xff, 0x0b, 0xe0, 0xfa, 0x05, 0x02, 0xf4, 0xf4, 0x01, 0x05, 0xfb, 0x10,
  0x01, 0x09, 0x11, 0xf6, 0xf1, 0xfb, 0xdc, 0x16, 0x26, 0xfc, 0xfa, 0xfa,
  0xf6, 0xfc, 0xf7, 0xf7, 0x01, 0x06, 0xfb, 0x11, 0xfd, 0x0d, 0x19, 0xee,
  0x0d, 0xfc, 0xf2, 0x28, 0x2b, 0xed, 0xf3, 0x0c, 0xe8, 0xff, 0x10, 0x0a,
  0x0f, 0x18, 0x06, 0xfb, 0xfe, 0x10, 0x10, 0xee, 0x16, 0x05, 0xf4, 0xe8,
  0x28, 0x06, 0x13, 0x05, 0xe3, 0x05, 0x02, 0x06, 0x11, 0x10, 0x07, 0xe1,
  0x03, 0x17, 0xf3, 0xdf, 0x05, 0x13, 0xff, 0xf8, 0x07, 0x04, 0x0c, 0x08,
  0x1c, 0x19, 0x0a, 0x18, 0x0f, 0x10, 0x00, 0xee, 0x0f, 0x07, 0xe2, 0xe3,
  0xfb, 0x16, 0x04, 0xe3, 0xeb, 0xf7, 0x08, 0x0f, 0x1e, 0x0e, 0x11, 0xf7,
  0x05, 0xfa, 0x04, 0x09, 0x1a, 0xd4, 0xd5, 0x0a, 0x06, 0x0b, 0xf8, 0xfa,
  0xe0, 0xe3, 0x03, 0x09, 0x1c, 0xf1, 0x07, 0xf2, 0xf4, 0xf8, 0x00, 0x2c,
  0x0d, 0xd1, 0xed, 0x19, 0xff, 0x06, 0xf9, 0xfc, 0xfe, 0xdb, 0xf6, 0xfd,
  0x04, 0x0e, 0xfb, 0x05, 0x02, 0xfa, 0x0c, 0x16, 0xef, 0xe9, 0xfc, 0xf9,
  0x1c, 0xf2, 0xd5, 0xfa, 0x05, 0xf0, 0x03, 0x06, 0xec, 0xfe, 0xfd, 0xee,
  0x0a, 0x08, 0xe3, 0x02, 0xfd, 0xf3, 0x01, 0xe2, 0x02, 0xfb, 0xf6, 0xe1,
  0xf7, 0xf1, 0xeb, 0x09, 0xfc, 0x17, 0xe6, 0xe4, 0x14, 0xf0, 0x02, 0xe2,
  0x08, 0x0a, 0xfc, 0xeb, 0xeb, 0xfe, 0xea, 0x04, 0xfc, 0xf5, 0x02, 0x04,
  0xc8, 0xcb, 0xf2, 0x1f, 0xcc, 0xdb, 0xef, 0xe7, 0xdc, 0xe6, 0xf8, 0xed,
  0x0a, 0xe7, 0x00, 0x2c, 0xe9, 0x02, 0xf1, 0x0a, 0xdb, 0xf9, 0x02, 0x10,
  0xc2, 0xce, 0xf6, 0x05, 0xe2, 0xfd, 0x12, 0xdc, 0x0c, 0xe8, 0xf2, 0x1e,
  0xfa, 0x08, 0xee, 0xf8, 0xdc, 0xf9, 0xdb, 0xef, 0xdc, 0xe5, 0xf6, 0xfb,
  0xe4, 0x1d, 0x20, 0xea, 0x07, 0xdb, 0xd2, 0xf7, 0xf0, 0xfb, 0x0c, 0x0f,
  0xea, 0xce, 0x00, 0xf6, 0xea, 0xf5, 0xe3, 0xf4, 0xf8, 0x12, 0x0d, 0x02,
  0xf6, 0xd3, 0x26, 0x0d, 0xec, 0x28, 0x24, 0x04, 0x08, 0x02, 0x38, 0x10,
  0xfe, 0x13, 0xf5, 0x0c, 0x14, 0xfc, 0x01, 0x13, 0xea, 0x10, 0x1e, 0xf7,
  0xf2, 0xf4, 0x08, 0x0a, 0x2a, 0xfb, 0x01, 0x01, 0x2b, 0x0d, 0x12, 0x08,
  0x1b, 0x0a, 0x06, 0x22, 0xe8, 0x16, 0xf7, 0xfa, 0xe7, 0xe7, 0x0d, 0x00,
  0x27, 0x03, 0x0c, 0x10, 0x14, 0x03, 0x17, 0x1c, 0x14, 0x1b, 0x19, 0x00,
  0xff, 0x11, 0x1f, 0xf8, 0xf7, 0xef, 0x03, 0x0a, 0x0d, 0xf3, 0x19, 0xf7,
  0xfa, 0x0f, 0x10, 0x11, 0x1a, 0x15, 0x18, 0xf9, 0xf6, 0x00, 0x08, 0xf9,
  0xf3, 0x08, 0xe6, 0x08, 0xeb, 0xfa, 0xfd, 0xf4, 0x23, 0xec, 0xff, 0xda,
  0xe6, 0x0d, 0x14, 0xf9, 0x00, 0xf1, 0x14, 0xfc, 0x01, 0xfa, 0x09, 0x0f,
  0xea, 0x0f, 0xfc, 0x0b, 0xe4, 0xf6, 0x03, 0xe9, 0x0d, 0xe8, 0xef, 0xe6,
  0x05, 0xfd, 0x0c, 0xe1, 0xec, 0x02, 0x19, 0xfe, 0xfa, 0x18, 0x00, 0x12,
  0x0f, 0x11, 0x0b, 0xf7, 0x12, 0xf1, 0xe8, 0x08, 0xf0, 0x07, 0xf2, 0x3f,
  0xec, 0xdb, 0x03, 0x01, 0x0e, 0x1b, 0xf2, 0x07, 0x0b, 0xf6, 0x0b, 0x09,
  0xfe, 0x09, 0x06, 0x07, 0x28, 0x0a, 0xe7, 0x28, 0x01, 0x0a, 0xda, 0xf6,
  0x06, 0xfe, 0xc2, 0xfe, 0x03, 0x06, 0xf8, 0xf6, 0x06, 0xeb, 0xfe, 0x1d,
  0xf6, 0x09, 0xf1, 0xed, 0xec, 0xfa, 0xd2, 0xfb, 0xfd, 0xf9, 0xf9, 0xf8,
  0xd3, 0xd2, 0xf6, 0xff, 0xe8, 0xf3, 0xfa, 0x07, 0xd7, 0xe4, 0xfb, 0x21,
  0x01, 0xd4, 0x08, 0x06, 0xff, 0xd6, 0x0d, 0x0d, 0xbf, 0xdb, 0xe9, 0x13,
  0xda, 0xfd, 0x05, 0xff, 0x13, 0xf0, 0xf8, 0x2d, 0x10, 0xde, 0x1f, 0x11,
  0xdd, 0xdc, 0x07, 0x05, 0xdf, 0x03, 0x04, 0x1b, 0xe6, 0x0d, 0x10, 0xfc,
  0x08, 0xfd, 0x09, 0x01, 0x12, 0xfa, 0x02, 0x0e, 0xe7, 0xfd, 0x0b, 0xed,
  0x1c, 0x0b, 0x00, 0x0c, 0xe7, 0x1b, 0x15, 0x00, 0x08, 0x18, 0x1b, 0x0c,
  0x06, 0x01, 0x20, 0x24, 0x13, 0xfd, 0x16, 0x0d, 0x0a, 0x16, 0x15, 0xf9,
  0xfe, 0x17, 0x14, 0x18, 0x03, 0x12, 0x1e, 0x01, 0xff, 0x1b, 0x18, 0x17,
  0x06, 0x10, 0x08, 0x02, 0x16, 0x03, 0x0b, 0xf6, 0xff, 0x01, 0xf9, 0x0c,
  0x06, 0x08, 0x13, 0xf0, 0x0b, 0x36, 0x0b, 0x09, 0xf2, 0x24, 0x0f, 0x15,
  0x17, 0x0f, 0xf4, 0xf3, 0x09, 0xf6, 0xf5, 0xfb, 0x11, 0x04, 0x1d, 0xff,
  0x17, 0x33, 0x01, 0x14, 0xf7, 0x08, 0x01, 0xfa, 0x12, 0x13, 0x07, 0xfd,
  0x1d, 0xf1, 0xf4, 0xe8, 0xff, 0x0e, 0xf8, 0x0f, 0x1e, 0x01, 0xdd, 0x0b,
  0x06, 0xfd, 0xe6, 0xd0, 0x0c, 0x00, 0x15, 0x03, 0x16, 0xf2, 0x07, 0x21,
  0xe4, 0x1b, 0xdd, 0x04, 0x1b, 0xfb, 0xc5, 0x0c, 0x24, 0x1a, 0xe5, 0xfa,
  0x23, 0x04, 0x0d, 0x1a, 0x05, 0x0a, 0x0d, 0x24, 0xf7, 0x04, 0xf6, 0xf5,
  0x14, 0xfe, 0xf9, 0x15, 0x14, 0x01, 0xea, 0xf2, 0xf2, 0x0e, 0x02, 0x21,
  0x09, 0x1d, 0x25, 0xfd, 0xf0, 0x0b, 0xed, 0xed, 0x08, 0xf5, 0xde, 0x12,
  0x05, 0xec, 0xfd, 0x10, 0x13, 0xfe, 0x04, 0x05, 0xee, 0x0b, 0x13, 0x01,
  0xd9, 0x00, 0x0c, 0xd6, 0xfc, 0x20, 0xef, 0x18, 0xfa, 0x05, 0x10, 0x02,
